unsigned char model_tflite[] = {
  0x1c, 0x00, 0x00, 0x00, 0x54, 0x46, 0x4c, 0x33, 0x14, 0x00, 0x20, 0x00,
  0x04, 0x00, 0x08, 0x00, 0x0c, 0x00, 0x10, 0x00, 0x14, 0x00, 0x00, 0x00,
  0x18, 0x00, 0x1c, 0x00, 0x14, 0x00, 0x00, 0x00, 0x03, 0x00, 0x00, 0x00,
  0x18, 0x00, 0x00, 0x00, 0x2c, 0x00, 0x00, 0x00, 0xe8, 0x00, 0x00, 0x00,
  0x2c, 0x00, 0x00, 0x00, 0x90, 0x00, 0x00, 0x00, 0x88, 0x00, 0x00, 0x00,
  0x05, 0x00, 0x00, 0x00, 0x28, 0x09, 0x00, 0x00, 0x44, 0x08, 0x00, 0x00,
  0xd4, 0x03, 0x00, 0x00, 0x10, 0x03, 0x00, 0x00, 0xd4, 0x01, 0x00, 0x00,
  0x01, 0x00, 0x00, 0x00, 0xe0, 0x00, 0x00, 0x00, 0x18, 0x00, 0x00, 0x00,
  0xd4, 0x14, 0x00, 0x00, 0xd0, 0x14, 0x00, 0x00, 0xf4, 0x13, 0x00, 0x00,
  0x60, 0x13, 0x00, 0x00, 0xd8, 0x12, 0x00, 0x00, 0x60, 0x12, 0x00, 0x00,
  0xe8, 0x11, 0x00, 0x00, 0x70, 0x11, 0x00, 0x00, 0x20, 0x0e, 0x00, 0x00,
  0x4c, 0x0d, 0x00, 0x00, 0x00, 0x0c, 0x00, 0x00, 0xe4, 0x0a, 0x00, 0x00,
  0xc8, 0x09, 0x00, 0x00, 0xa0, 0x14, 0x00, 0x00, 0x9c, 0x14, 0x00, 0x00,
  0x98, 0x14, 0x00, 0x00, 0x94, 0x14, 0x00, 0x00, 0x90, 0x14, 0x00, 0x00,
  0x8c, 0x14, 0x00, 0x00, 0x88, 0x14, 0x00, 0x00, 0x84, 0x14, 0x00, 0x00,
  0x80, 0x14, 0x00, 0x00, 0x7c, 0x14, 0x00, 0x00, 0x3c, 0x00, 0x00, 0x00,
  0x00, 0x00, 0x00, 0x00, 0x01, 0x00, 0x00, 0x00, 0x0c, 0x00, 0x00, 0x00,
  0x08, 0x00, 0x0c, 0x00, 0x04, 0x00, 0x08, 0x00, 0x08, 0x00, 0x00, 0x00,
  0x08, 0x00, 0x00, 0x00, 0x17, 0x00, 0x00, 0x00, 0x13, 0x00, 0x00, 0x00,
  0x6d, 0x69, 0x6e, 0x5f, 0x72, 0x75, 0x6e, 0x74, 0x69, 0x6d, 0x65, 0x5f,
  0x76, 0x65, 0x72, 0x73, 0x69, 0x6f, 0x6e, 0x00, 0xa2, 0xec, 0xff, 0xff,
  0x04, 0x00, 0x00, 0x00, 0x10, 0x00, 0x00, 0x00, 0x31, 0x2e, 0x35, 0x2e,
  0x30, 0x00, 0x00, 0x00, 0x00, 0x00, 0x00, 0x00, 0x00, 0x00, 0x00, 0x00,
  0x0f, 0x00, 0x00, 0x00, 0x4d, 0x4c, 0x49, 0x52, 0x20, 0x43, 0x6f, 0x6e,
  0x76, 0x65, 0x72, 0x74, 0x65, 0x64, 0x2e, 0x00, 0x00, 0x00, 0x0e, 0x00,
  0x18, 0x00, 0x04, 0x00, 0x08, 0x00, 0x0c, 0x00, 0x10, 0x00, 0x14, 0x00,
  0x0e, 0x00, 0x00, 0x00, 0x14, 0x00, 0x00, 0x00, 0x6c, 0x00, 0x00, 0x00,
  0x70, 0x00, 0x00, 0x00, 0x74, 0x00, 0x00, 0x00, 0x9c, 0x00, 0x00, 0x00,
  0x16, 0x00, 0x00, 0x00, 0x84, 0x13, 0x00, 0x00, 0x28, 0x13, 0x00, 0x00,
  0x9c, 0x12, 0x00, 0x00, 0x14, 0x12, 0x00, 0x00, 0x8c, 0x11, 0x00, 0x00,
  0x14, 0x11, 0x00, 0x00, 0x9c, 0x10, 0x00, 0x00, 0x3c, 0x10, 0x00, 0x00,
  0xe8, 0x0c, 0x00, 0x00, 0x0c, 0x0c, 0x00, 0x00, 0xc0, 0x0a, 0x00, 0x00,
  0xa4, 0x09, 0x00, 0x00, 0xf4, 0x07, 0x00, 0x00, 0x10, 0x07, 0x00, 0x00,
  0xb4, 0x05, 0x00, 0x00, 0xfc, 0x04, 0x00, 0x00, 0xe0, 0x03, 0x00, 0x00,
  0x34, 0x03, 0x00, 0x00, 0x90, 0x02, 0x00, 0x00, 0xcc, 0x01, 0x00, 0x00,
  0x08, 0x01, 0x00, 0x00, 0x8c, 0x00, 0x00, 0x00, 0x01, 0x00, 0x00, 0x00,
  0x00, 0x00, 0x00, 0x00, 0x01, 0x00, 0x00, 0x00, 0x15, 0x00, 0x00, 0x00,
  0x0a, 0x00, 0x00, 0x00, 0x54, 0x07, 0x00, 0x00, 0x74, 0x06, 0x00, 0x00,
  0x30, 0x05, 0x00, 0x00, 0x74, 0x04, 0x00, 0x00, 0x68, 0x03, 0x00, 0x00,
  0xbc, 0x02, 0x00, 0x00, 0x20, 0x02, 0x00, 0x00, 0x40, 0x01, 0x00, 0x00,
  0x98, 0x00, 0x00, 0x00, 0x10, 0x00, 0x00, 0x00, 0x04, 0x00, 0x00, 0x00,
  0x6d, 0x61, 0x69, 0x6e, 0x00, 0x00, 0x00, 0x00, 0x72, 0xfd, 0xff, 0xff,
  0x00, 0x00, 0x00, 0x09, 0x04, 0x00, 0x00, 0x00, 0x1c, 0x00, 0x00, 0x00,
  0x10, 0x00, 0x00, 0x00, 0x04, 0x00, 0x00, 0x00, 0xb6, 0xed, 0xff, 0xff,
  0x00, 0x00, 0x80, 0x3f, 0x01, 0x00, 0x00, 0x00, 0x15, 0x00, 0x00, 0x00,
  0x01, 0x00, 0x00, 0x00, 0x14, 0x00, 0x00, 0x00, 0xc8, 0xf8, 0xff, 0xff,
  0x19, 0x00, 0x00, 0x00, 0x00, 0x00, 0x00, 0x19, 0x01, 0x00, 0x00, 0x00,
  0x70, 0xed, 0xff, 0xff, 0x14, 0x00, 0x00, 0x00, 0x16, 0x00, 0x00, 0x00,
  0x18, 0x00, 0x00, 0x00, 0x30, 0x00, 0x00, 0x00, 0x20, 0x00, 0x00, 0x00,
  0x02, 0x00, 0x00, 0x00, 0x01, 0x00, 0x00, 0x00, 0x04, 0x00, 0x00, 0x00,
  0x08, 0x00, 0x00, 0x00, 0x49, 0x64, 0x65, 0x6e, 0x74, 0x69, 0x74, 0x79,
  0x00, 0x00, 0x00, 0x00, 0x02, 0x00, 0x00, 0x00, 0xff, 0xff, 0xff, 0xff,
  0x04, 0x00, 0x00, 0x00, 0x44, 0xed, 0xff, 0xff, 0xf6, 0xfd, 0xff, 0xff,
  0x00, 0x00, 0x00, 0x08, 0x03, 0x00, 0x00, 0x00, 0x18, 0x00, 0x00, 0x00,
  0x0c, 0x00, 0x00, 0x00, 0x04, 0x00, 0x00, 0x00, 0x60, 0xed, 0xff, 0xff,
  0x01, 0x00, 0x00, 0x00, 0x14, 0x00, 0x00, 0x00, 0x03, 0x00, 0x00, 0x00,
  0x13, 0x00, 0x00, 0x00, 0x08, 0x00, 0x00, 0x00, 0x02, 0x00, 0x00, 0x00,
  0xe8, 0xed, 0xff, 0xff, 0x14, 0x00, 0x00, 0x00, 0x15, 0x00, 0x00, 0x00,
  0x18, 0x00, 0x00, 0x00, 0x5c, 0x00, 0x00, 0x00, 0x4c, 0x00, 0x00, 0x00,
  0x02, 0x00, 0x00, 0x00, 0x01, 0x00, 0x00, 0x00, 0x04, 0x00, 0x00, 0x00,
  0x34, 0x00, 0x00, 0x00, 0x73, 0x65, 0x71, 0x75, 0x65, 0x6e, 0x74, 0x69,
  0x61, 0x6c, 0x2f, 0x64, 0x65, 0x6e, 0x73, 0x65, 0x5f, 0x31, 0x2f, 0x4d,
  0x61, 0x74, 0x4d, 0x75, 0x6c, 0x3b, 0x73, 0x65, 0x71, 0x75, 0x65, 0x6e,
  0x74, 0x69, 0x61, 0x6c, 0x2f, 0x64, 0x65, 0x6e, 0x73, 0x65, 0x5f, 0x31,
  0x2f, 0x42, 0x69, 0x61, 0x73, 0x41, 0x64, 0x64, 0x00, 0x00, 0x00, 0x00,
  0x02, 0x00, 0x00, 0x00, 0xff, 0xff, 0xff, 0xff, 0x04, 0x00, 0x00, 0x00,
  0xe8, 0xed, 0xff, 0xff, 0xf2, 0xfa, 0xff, 0xff, 0x00, 0x00, 0x00, 0x08,
  0x03, 0x00, 0x00, 0x00, 0x24, 0x00, 0x00, 0x00, 0x18, 0x00, 0x00, 0x00,
  0x0c, 0x00, 0x00, 0x00, 0x00, 0x00, 0x06, 0x00, 0x08, 0x00, 0x07, 0x00,
  0x06, 0x00, 0x00, 0x00, 0x00, 0x00, 0x00, 0x01, 0x01, 0x00, 0x00, 0x00,
  0x13, 0x00, 0x00, 0x00, 0x03, 0x00, 0x00, 0x00, 0x12, 0x00, 0x00, 0x00,
  0x07, 0x00, 0x00, 0x00, 0x03, 0x00, 0x00, 0x00, 0x00, 0xfa, 0xff, 0xff,
  0x09, 0x00, 0x00, 0x00, 0x00, 0x00, 0x00, 0x09, 0x01, 0x00, 0x00, 0x00,
  0xa8, 0xee, 0xff, 0xff, 0x14, 0x00, 0x00, 0x00, 0x14, 0x00, 0x00, 0x00,
  0x18, 0x00, 0x00, 0x00, 0x6c, 0x00, 0x00, 0x00, 0x5c, 0x00, 0x00, 0x00,
  0x02, 0x00, 0x00, 0x00, 0x01, 0x00, 0x00, 0x00, 0x08, 0x00, 0x00, 0x00,
  0x46, 0x00, 0x00, 0x00, 0x73, 0x65, 0x71, 0x75, 0x65, 0x6e, 0x74, 0x69,
  0x61, 0x6c, 0x2f, 0x64, 0x65, 0x6e, 0x73, 0x65, 0x2f, 0x4d, 0x61, 0x74,
  0x4d, 0x75, 0x6c, 0x3b, 0x73, 0x65, 0x71, 0x75, 0x65, 0x6e, 0x74, 0x69,
  0x61, 0x6c, 0x2f, 0x64, 0x65, 0x6e, 0x73, 0x65, 0x2f, 0x52, 0x65, 0x6c,
  0x75, 0x3b, 0x73, 0x65, 0x71, 0x75, 0x65, 0x6e, 0x74, 0x69, 0x61, 0x6c,
  0x2f, 0x64, 0x65, 0x6e, 0x73, 0x65, 0x2f, 0x42, 0x69, 0x61, 0x73, 0x41,
  0x64, 0x64, 0x00, 0x00, 0x02, 0x00, 0x00, 0x00, 0xff, 0xff, 0xff, 0xff,
  0x08, 0x00, 0x00, 0x00, 0x9c, 0xef, 0xff, 0xff, 0x00, 0x00, 0x0a, 0x00,
  0x10, 0x00, 0x04, 0x00, 0x08, 0x00, 0x0c, 0x00, 0x0a, 0x00, 0x00, 0x00,
  0x02, 0x00, 0x00, 0x00, 0x10, 0x00, 0x00, 0x00, 0x04, 0x00, 0x00, 0x00,
  0x01, 0x00, 0x00, 0x00, 0x12, 0x00, 0x00, 0x00, 0x02, 0x00, 0x00, 0x00,
  0x11, 0x00, 0x00, 0x00, 0x01, 0x00, 0x00, 0x00, 0xc0, 0xfa, 0xff, 0xff,
  0x16, 0x00, 0x00, 0x00, 0x00, 0x00, 0x00, 0x16, 0x01, 0x00, 0x00, 0x00,
  0x68, 0xef, 0xff, 0xff, 0x14, 0x00, 0x00, 0x00, 0x13, 0x00, 0x00, 0x00,
  0x18, 0x00, 0x00, 0x00, 0x40, 0x00, 0x00, 0x00, 0x30, 0x00, 0x00, 0x00,
  0x02, 0x00, 0x00, 0x00, 0x01, 0x00, 0x00, 0x00, 0x18, 0x00, 0x00, 0x00,
  0x1a, 0x00, 0x00, 0x00, 0x73, 0x65, 0x71, 0x75, 0x65, 0x6e, 0x74, 0x69,
  0x61, 0x6c, 0x2f, 0x66, 0x6c, 0x61, 0x74, 0x74, 0x65, 0x6e, 0x2f, 0x52,
  0x65, 0x73, 0x68, 0x61, 0x70, 0x65, 0x00, 0x00, 0x02, 0x00, 0x00, 0x00,
  0xff, 0xff, 0xff, 0xff, 0x18, 0x00, 0x00, 0x00, 0x30, 0xf0, 0xff, 0xff,
  0x00, 0x00, 0x0e, 0x00, 0x18, 0x00, 0x08, 0x00, 0x0c, 0x00, 0x10, 0x00,
  0x07, 0x00, 0x14, 0x00, 0x0e, 0x00, 0x00, 0x00, 0x00, 0x00, 0x00, 0x05,
  0x01, 0x00, 0x00, 0x00, 0x28, 0x00, 0x00, 0x00, 0x1c, 0x00, 0x00, 0x00,
  0x04, 0x00, 0x00, 0x00, 0x4e, 0xfe, 0xff, 0xff, 0x02, 0x00, 0x00, 0x00,
  0x01, 0x00, 0x00, 0x00, 0x02, 0x00, 0x00, 0x00, 0x01, 0x00, 0x00, 0x00,
  0x01, 0x00, 0x00, 0x00, 0x11, 0x00, 0x00, 0x00, 0x01, 0x00, 0x00, 0x00,
  0x10, 0x00, 0x00, 0x00, 0x08, 0xf0, 0xff, 0xff, 0x14, 0x00, 0x00, 0x00,
  0x12, 0x00, 0x00, 0x00, 0x20, 0x00, 0x00, 0x00, 0x58, 0x00, 0x00, 0x00,
  0x40, 0x00, 0x00, 0x00, 0x04, 0x00, 0x00, 0x00, 0x01, 0x00, 0x00, 0x00,
  0x06, 0x00, 0x00, 0x00, 0x01, 0x00, 0x00, 0x00, 0x04, 0x00, 0x00, 0x00,
  0x22, 0x00, 0x00, 0x00, 0x73, 0x65, 0x71, 0x75, 0x65, 0x6e, 0x74, 0x69,
  0x61, 0x6c, 0x2f, 0x6d, 0x61, 0x78, 0x5f, 0x70, 0x6f, 0x6f, 0x6c, 0x69,
  0x6e, 0x67, 0x32, 0x64, 0x5f, 0x32, 0x2f, 0x4d, 0x61, 0x78, 0x50, 0x6f,
  0x6f, 0x6c, 0x00, 0x00, 0x04, 0x00, 0x00, 0x00, 0xff, 0xff, 0xff, 0xff,
  0x06, 0x00, 0x00, 0x00, 0x01, 0x00, 0x00, 0x00, 0x04, 0x00, 0x00, 0x00,
  0x04, 0xf0, 0xff, 0xff, 0x32, 0xfc, 0xff, 0xff, 0x00, 0x00, 0x00, 0x01,
  0x24, 0x00, 0x00, 0x00, 0x18, 0x00, 0x00, 0x00, 0x04, 0x00, 0x00, 0x00,
  0x40, 0xfe, 0xff, 0xff, 0x01, 0x00, 0x00, 0x00, 0x01, 0x00, 0x00, 0x00,
  0x00, 0x00, 0x00, 0x01, 0x01, 0x00, 0x00, 0x00, 0x10, 0x00, 0x00, 0x00,
  0x03, 0x00, 0x00, 0x00, 0x0f, 0x00, 0x00, 0x00, 0x0b, 0x00, 0x00, 0x00,
  0x04, 0x00, 0x00, 0x00, 0xb0, 0xf0, 0xff, 0xff, 0x14, 0x00, 0x00, 0x00,
  0x11, 0x00, 0x00, 0x00, 0x20, 0x00, 0x00, 0x00, 0xb8, 0x00, 0x00, 0x00,
  0xa0, 0x00, 0x00, 0x00, 0x04, 0x00, 0x00, 0x00, 0x01, 0x00, 0x00, 0x00,
  0x0c, 0x00, 0x00, 0x00, 0x01, 0x00, 0x00, 0x00, 0x04, 0x00, 0x00, 0x00,
  0x83, 0x00, 0x00, 0x00, 0x73, 0x65, 0x71, 0x75, 0x65, 0x6e, 0x74, 0x69,
  0x61, 0x6c, 0x2f, 0x63, 0x6f, 0x6e, 0x76, 0x32, 0x64, 0x5f, 0x32, 0x2f,
  0x52, 0x65, 0x6c, 0x75, 0x3b, 0x73, 0x65, 0x71, 0x75, 0x65, 0x6e, 0x74,
  0x69, 0x61, 0x6c, 0x2f, 0x63, 0x6f, 0x6e, 0x76, 0x32, 0x64, 0x5f, 0x32,
  0x2f, 0x42, 0x69, 0x61, 0x73, 0x41, 0x64, 0x64, 0x3b, 0x73, 0x65, 0x71,
  0x75, 0x65, 0x6e, 0x74, 0x69, 0x61, 0x6c, 0x2f, 0x63, 0x6f, 0x6e, 0x76,
  0x32, 0x64, 0x5f, 0x32, 0x2f, 0x43, 0x6f, 0x6e, 0x76, 0x32, 0x44, 0x3b,
  0x73, 0x65, 0x71, 0x75, 0x65, 0x6e, 0x74, 0x69, 0x61, 0x6c, 0x2f, 0x63,
  0x6f, 0x6e, 0x76, 0x32, 0x64, 0x5f, 0x32, 0x2f, 0x42, 0x69, 0x61, 0x73,
  0x41, 0x64, 0x64, 0x2f, 0x52, 0x65, 0x61, 0x64, 0x56, 0x61, 0x72, 0x69,
  0x61, 0x62, 0x6c, 0x65, 0x4f, 0x70, 0x2f, 0x72, 0x65, 0x73, 0x6f, 0x75,
  0x72, 0x63, 0x65, 0x00, 0x04, 0x00, 0x00, 0x00, 0xff, 0xff, 0xff, 0xff,
  0x0c, 0x00, 0x00, 0x00, 0x01, 0x00, 0x00, 0x00, 0x04, 0x00, 0x00, 0x00,
  0x0c, 0xf1, 0xff, 0xff, 0x16, 0xfe, 0xff, 0xff, 0x00, 0x00, 0x00, 0x05,
  0x01, 0x00, 0x00, 0x00, 0x38, 0x00, 0x00, 0x00, 0x2c, 0x00, 0x00, 0x00,
  0x14, 0x00, 0x00, 0x00, 0x00, 0x00, 0x0e, 0x00, 0x14, 0x00, 0x00, 0x00,
  0x10, 0x00, 0x0c, 0x00, 0x08, 0x00, 0x04, 0x00, 0x0e, 0x00, 0x00, 0x00,
  0x02, 0x00, 0x00, 0x00, 0x01, 0x00, 0x00, 0x00, 0x02, 0x00, 0x00, 0x00,
  0x01, 0x00, 0x00, 0x00, 0x01, 0x00, 0x00, 0x00, 0x0f, 0x00, 0x00, 0x00,
  0x01, 0x00, 0x00, 0x00, 0x0e, 0x00, 0x00, 0x00, 0xc8, 0xf1, 0xff, 0xff,
  0x14, 0x00, 0x00, 0x00, 0x10, 0x00, 0x00, 0x00, 0x20, 0x00, 0x00, 0x00,
  0x58, 0x00, 0x00, 0x00, 0x40, 0x00, 0x00, 0x00, 0x04, 0x00, 0x00, 0x00,
  0x01, 0x00, 0x00, 0x00, 0x0c, 0x00, 0x00, 0x00, 0x01, 0x00, 0x00, 0x00,
  0x04, 0x00, 0x00, 0x00, 0x22, 0x00, 0x00, 0x00, 0x73, 0x65, 0x71, 0x75,
  0x65, 0x6e, 0x74, 0x69, 0x61, 0x6c, 0x2f, 0x6d, 0x61, 0x78, 0x5f, 0x70,
  0x6f, 0x6f, 0x6c, 0x69, 0x6e, 0x67, 0x32, 0x64, 0x5f, 0x31, 0x2f, 0x4d,
  0x61, 0x78, 0x50, 0x6f, 0x6f, 0x6c, 0x00, 0x00, 0x04, 0x00, 0x00, 0x00,
  0xff, 0xff, 0xff, 0xff, 0x0c, 0x00, 0x00, 0x00, 0x01, 0x00, 0x00, 0x00,
  0x04, 0x00, 0x00, 0x00, 0xc4, 0xf1, 0xff, 0xff, 0xf2, 0xfd, 0xff, 0xff,
  0x00, 0x00, 0x00, 0x01, 0x30, 0x00, 0x00, 0x00, 0x24, 0x00, 0x00, 0x00,
  0x10, 0x00, 0x00, 0x00, 0x0c, 0x00, 0x10, 0x00, 0x00, 0x00, 0x04, 0x00,
  0x08, 0x00, 0x0f, 0x00, 0x0c, 0x00, 0x00, 0x00, 0x01, 0x00, 0x00, 0x00,
  0x01, 0x00, 0x00, 0x00, 0x00, 0x00, 0x00, 0x01, 0x01, 0x00, 0x00, 0x00,
  0x0e, 0x00, 0x00, 0x00, 0x03, 0x00, 0x00, 0x00, 0x0d, 0x00, 0x00, 0x00,
  0x0a, 0x00, 0x00, 0x00, 0x05, 0x00, 0x00, 0x00, 0x7c, 0xf2, 0xff, 0xff,
  0x14, 0x00, 0x00, 0x00, 0x0f, 0x00, 0x00, 0x00, 0x20, 0x00, 0x00, 0x00,
  0xd4, 0x00, 0x00, 0x00, 0xbc, 0x00, 0x00, 0x00, 0x04, 0x00, 0x00, 0x00,
  0x01, 0x00, 0x00, 0x00, 0x18, 0x00, 0x00, 0x00, 0x01, 0x00, 0x00, 0x00,
  0x04, 0x00, 0x00, 0x00, 0x9e, 0x00, 0x00, 0x00, 0x73, 0x65, 0x71, 0x75,
  0x65, 0x6e, 0x74, 0x69, 0x61, 0x6c, 0x2f, 0x63, 0x6f, 0x6e, 0x76, 0x32,
  0x64, 0x5f, 0x31, 0x2f, 0x52, 0x65, 0x6c, 0x75, 0x3b, 0x73, 0x65, 0x71,
  0x75, 0x65, 0x6e, 0x74, 0x69, 0x61, 0x6c, 0x2f, 0x63, 0x6f, 0x6e, 0x76,
  0x32, 0x64, 0x5f, 0x31, 0x2f, 0x42, 0x69, 0x61, 0x73, 0x41, 0x64, 0x64,
  0x3b, 0x73, 0x65, 0x71, 0x75, 0x65, 0x6e, 0x74, 0x69, 0x61, 0x6c, 0x2f,
  0x63, 0x6f, 0x6e, 0x76, 0x32, 0x64, 0x5f, 0x32, 0x2f, 0x43, 0x6f, 0x6e,
  0x76, 0x32, 0x44, 0x3b, 0x73, 0x65, 0x71, 0x75, 0x65, 0x6e, 0x74, 0x69,
  0x61, 0x6c, 0x2f, 0x63, 0x6f, 0x6e, 0x76, 0x32, 0x64, 0x5f, 0x31, 0x2f,
  0x43, 0x6f, 0x6e, 0x76, 0x32, 0x44, 0x3b, 0x73, 0x65, 0x71, 0x75, 0x65,
  0x6e, 0x74, 0x69, 0x61, 0x6c, 0x2f, 0x63, 0x6f, 0x6e, 0x76, 0x32, 0x64,
  0x5f, 0x31, 0x2f, 0x42, 0x69, 0x61, 0x73, 0x41, 0x64, 0x64, 0x2f, 0x52,
  0x65, 0x61, 0x64, 0x56, 0x61, 0x72, 0x69, 0x61, 0x62, 0x6c, 0x65, 0x4f,
  0x70, 0x2f, 0x72, 0x65, 0x73, 0x6f, 0x75, 0x72, 0x63, 0x65, 0x00, 0x00,
  0x04, 0x00, 0x00, 0x00, 0xff, 0xff, 0xff, 0xff, 0x18, 0x00, 0x00, 0x00,
  0x01, 0x00, 0x00, 0x00, 0x04, 0x00, 0x00, 0x00, 0xd8, 0xf3, 0xff, 0xff,
  0x00, 0x00, 0x0e, 0x00, 0x1a, 0x00, 0x08, 0x00, 0x0c, 0x00, 0x10, 0x00,
  0x07, 0x00, 0x14, 0x00, 0x0e, 0x00, 0x00, 0x00, 0x00, 0x00, 0x00, 0x05,
  0x01, 0x00, 0x00, 0x00, 0x3c, 0x00, 0x00, 0x00, 0x30, 0x00, 0x00, 0x00,
  0x14, 0x00, 0x00, 0x00, 0x00, 0x00, 0x0e, 0x00, 0x18, 0x00, 0x17, 0x00,
  0x10, 0x00, 0x0c, 0x00, 0x08, 0x00, 0x04, 0x00, 0x0e, 0x00, 0x00, 0x00,
  0x02, 0x00, 0x00, 0x00, 0x01, 0x00, 0x00, 0x00, 0x02, 0x00, 0x00, 0x00,
  0x01, 0x00, 0x00, 0x00, 0x00, 0x00, 0x00, 0x01, 0x01, 0x00, 0x00, 0x00,
  0x0d, 0x00, 0x00, 0x00, 0x01, 0x00, 0x00, 0x00, 0x0c, 0x00, 0x00, 0x00,
  0x2c, 0xff, 0xff, 0xff, 0x11, 0x00, 0x00, 0x00, 0x00, 0x00, 0x00, 0x11,
  0x01, 0x00, 0x00, 0x00, 0xd4, 0xf3, 0xff, 0xff, 0x14, 0x00, 0x00, 0x00,
  0x0e, 0x00, 0x00, 0x00, 0x20, 0x00, 0x00, 0x00, 0x58, 0x00, 0x00, 0x00,
  0x40, 0x00, 0x00, 0x00, 0x04, 0x00, 0x00, 0x00, 0x01, 0x00, 0x00, 0x00,
  0x18, 0x00, 0x00, 0x00, 0x01, 0x00, 0x00, 0x00, 0x04, 0x00, 0x00, 0x00,
  0x20, 0x00, 0x00, 0x00, 0x73, 0x65, 0x71, 0x75, 0x65, 0x6e, 0x74, 0x69,
  0x61, 0x6c, 0x2f, 0x6d, 0x61, 0x78, 0x5f, 0x70, 0x6f, 0x6f, 0x6c, 0x69,
  0x6e, 0x67, 0x32, 0x64, 0x2f, 0x4d, 0x61, 0x78, 0x50, 0x6f, 0x6f, 0x6c,
  0x00, 0x00, 0x00, 0x00, 0x04, 0x00, 0x00, 0x00, 0xff, 0xff, 0xff, 0xff,
  0x18, 0x00, 0x00, 0x00, 0x01, 0x00, 0x00, 0x00, 0x04, 0x00, 0x00, 0x00,
  0xb4, 0xf4, 0xff, 0xff, 0x00, 0x00, 0x0e, 0x00, 0x14, 0x00, 0x00, 0x00,
  0x08, 0x00, 0x0c, 0x00, 0x07, 0x00, 0x10, 0x00, 0x0e, 0x00, 0x00, 0x00,
  0x00, 0x00, 0x00, 0x01, 0x30, 0x00, 0x00, 0x00, 0x24, 0x00, 0x00, 0x00,
  0x10, 0x00, 0x00, 0x00, 0x0c, 0x00, 0x10, 0x00, 0x0e, 0x00, 0x04, 0x00,
  0x08, 0x00, 0x0f, 0x00, 0x0c, 0x00, 0x00, 0x00, 0x01, 0x00, 0x00, 0x00,
  0x01, 0x00, 0x00, 0x00, 0x00, 0x00, 0x01, 0x01, 0x01, 0x00, 0x00, 0x00,
  0x0c, 0x00, 0x00, 0x00, 0x03, 0x00, 0x00, 0x00, 0x00, 0x00, 0x00, 0x00,
  0x09, 0x00, 0x00, 0x00, 0x06, 0x00, 0x00, 0x00, 0x0c, 0x00, 0x10, 0x00,
  0x0b, 0x00, 0x00, 0x00, 0x0c, 0x00, 0x04, 0x00, 0x0c, 0x00, 0x00, 0x00,
  0x03, 0x00, 0x00, 0x00, 0x00, 0x00, 0x00, 0x03, 0x01, 0x00, 0x00, 0x00,
  0xb4, 0xf4, 0xff, 0xff, 0x14, 0x00, 0x00, 0x00, 0x0d, 0x00, 0x00, 0x00,
  0x20, 0x00, 0x00, 0x00, 0xcc, 0x00, 0x00, 0x00, 0xb4, 0x00, 0x00, 0x00,
  0x04, 0x00, 0x00, 0x00, 0x01, 0x00, 0x00, 0x00, 0x30, 0x00, 0x00, 0x00,
  0x01, 0x00, 0x00, 0x00, 0x04, 0x00, 0x00, 0x00, 0x96, 0x00, 0x00, 0x00,
  0x73, 0x65, 0x71, 0x75, 0x65, 0x6e, 0x74, 0x69, 0x61, 0x6c, 0x2f, 0x63,
  0x6f, 0x6e, 0x76, 0x32, 0x64, 0x2f, 0x52, 0x65, 0x6c, 0x75, 0x3b, 0x73,
  0x65, 0x71, 0x75, 0x65, 0x6e, 0x74, 0x69, 0x61, 0x6c, 0x2f, 0x63, 0x6f,
  0x6e, 0x76, 0x32, 0x64, 0x2f, 0x42, 0x69, 0x61, 0x73, 0x41, 0x64, 0x64,
  0x3b, 0x73, 0x65, 0x71, 0x75, 0x65, 0x6e, 0x74, 0x69, 0x61, 0x6c, 0x2f,
  0x63, 0x6f, 0x6e, 0x76, 0x32, 0x64, 0x5f, 0x32, 0x2f, 0x43, 0x6f, 0x6e,
  0x76, 0x32, 0x44, 0x3b, 0x73, 0x65, 0x71, 0x75, 0x65, 0x6e, 0x74, 0x69,
  0x61, 0x6c, 0x2f, 0x63, 0x6f, 0x6e, 0x76, 0x32, 0x64, 0x2f, 0x43, 0x6f,
  0x6e, 0x76, 0x32, 0x44, 0x3b, 0x73, 0x65, 0x71, 0x75, 0x65, 0x6e, 0x74,
  0x69, 0x61, 0x6c, 0x2f, 0x63, 0x6f, 0x6e, 0x76, 0x32, 0x64, 0x2f, 0x42,
  0x69, 0x61, 0x73, 0x41, 0x64, 0x64, 0x2f, 0x52, 0x65, 0x61, 0x64, 0x56,
  0x61, 0x72, 0x69, 0x61, 0x62, 0x6c, 0x65, 0x4f, 0x70, 0x2f, 0x72, 0x65,
  0x73, 0x6f, 0x75, 0x72, 0x63, 0x65, 0x00, 0x00, 0x04, 0x00, 0x00, 0x00,
  0xff, 0xff, 0xff, 0xff, 0x30, 0x00, 0x00, 0x00, 0x01, 0x00, 0x00, 0x00,
  0x04, 0x00, 0x00, 0x00, 0x24, 0xf5, 0xff, 0xff, 0x02, 0xf6, 0xff, 0xff,
  0x04, 0x00, 0x00, 0x00, 0xc0, 0x00, 0x00, 0x00, 0x80, 0x70, 0xc4, 0xbe,
  0x70, 0xc2, 0xc4, 0xbe, 0xc9, 0xd9, 0x93, 0x3d, 0xc2, 0x90, 0xd7, 0xbe,
  0xe7, 0x48, 0x44, 0xbd, 0x34, 0x5a, 0x15, 0x3e, 0xa2, 0x26, 0xb5, 0xbe,
  0x34, 0x44, 0x1d, 0x3d, 0x27, 0x6a, 0x93, 0xbd, 0x2a, 0x4c, 0x93, 0xbd,
  0xdd, 0xc8, 0xb9, 0x3e, 0x31, 0x3b, 0xab, 0xbe, 0x90, 0x5e, 0xe1, 0xbe,
  0x6f, 0xa3, 0xf0, 0x3e, 0x59, 0xf7, 0x55, 0x3e, 0x62, 0x32, 0xe1, 0xbd,
  0xfc, 0x0a, 0x2d, 0xbd, 0xdf, 0x6b, 0x02, 0xbf, 0xfa, 0x33, 0xb2, 0x3e,
  0xfb, 0x9e, 0x27, 0x3d, 0x5f, 0x44, 0x6b, 0xbe, 0x64, 0x91, 0x07, 0x3e,
  0x2e, 0xfd, 0xad, 0x3e, 0x89, 0xd1, 0xbf, 0x3d, 0x35, 0x69, 0x20, 0x3e,
  0x8f, 0x71, 0x22, 0x3f, 0x28, 0x26, 0x9f, 0xbd, 0x6b, 0x70, 0xa4, 0xbe,
  0xda, 0x89, 0xb2, 0xbe, 0x40, 0x34, 0x05, 0x3f, 0xf5, 0x90, 0x28, 0xbe,
  0x46, 0x40, 0xde, 0x3d, 0x62, 0x96, 0xd9, 0x3e, 0x08, 0x78, 0x7e, 0x3f,
  0x43, 0x16, 0xbf, 0x3d, 0xf2, 0x88, 0x4e, 0x3d, 0x0b, 0xa5, 0xc7, 0x3e,
  0xb9, 0x4d, 0x28, 0xbe, 0x9c, 0xd9, 0xa5, 0xbe, 0xe0, 0x66, 0xe0, 0xbe,
  0xc5, 0xfa, 0xc6, 0xbe, 0x90, 0xca, 0xda, 0xbc, 0x5d, 0xc7, 0xcf, 0xbe,
  0x6e, 0x83, 0x23, 0x3e, 0x17, 0x32, 0x06, 0x3f, 0x80, 0x75, 0x04, 0xbf,
  0xc5, 0xc5, 0x94, 0xbe, 0x84, 0xde, 0x13, 0x3d, 0x3a, 0xf7, 0xff, 0xff,
  0x10, 0x00, 0x00, 0x00, 0x0c, 0x00, 0x00, 0x00, 0x1c, 0x00, 0x00, 0x00,
  0x38, 0x00, 0x00, 0x00, 0x04, 0x00, 0x00, 0x00, 0x04, 0x00, 0x00, 0x00,
  0x03, 0x00, 0x00, 0x00, 0x01, 0x00, 0x00, 0x00, 0x04, 0x00, 0x00, 0x00,
  0x1a, 0x00, 0x00, 0x00, 0x73, 0x65, 0x71, 0x75, 0x65, 0x6e, 0x74, 0x69,
  0x61, 0x6c, 0x2f, 0x63, 0x6f, 0x6e, 0x76, 0x32, 0x64, 0x5f, 0x32, 0x2f,
  0x43, 0x6f, 0x6e, 0x76, 0x32, 0x44, 0x00, 0x00, 0x3c, 0xf6, 0xff, 0xff,
  0x1a, 0xf7, 0xff, 0xff, 0x04, 0x00, 0x00, 0x00, 0xc0, 0x00, 0x00, 0x00,
  0x0f, 0xad, 0x01, 0xbb, 0xba, 0xcd, 0xaf, 0x3d, 0x4c, 0x49, 0x93, 0x3e,
  0x67, 0x7c, 0xb0, 0xbe, 0x13, 0x3c, 0x1d, 0x3e, 0x8e, 0xd5, 0x85, 0xbe,
  0xb5, 0xec, 0xdc, 0xbd, 0xe0, 0x46, 0xe5, 0x3d, 0x58, 0xdd, 0xb3, 0xbe,
  0xe8, 0x64, 0xea, 0x3e, 0x26, 0x7d, 0x49, 0x3e, 0x10, 0xa3, 0xa3, 0x3e,
  0x03, 0x3e, 0x30, 0xbe, 0x8a, 0x66, 0x43, 0xbe, 0xe9, 0x04, 0x71, 0xbe,
  0x07, 0x2b, 0xb2, 0xbd, 0x4e, 0x24, 0x92, 0xbe, 0x76, 0xea, 0x02, 0xbf,
  0x16, 0xcb, 0x87, 0xbe, 0xeb, 0x99, 0x95, 0x3d, 0x02, 0xe3, 0xc8, 0x3e,
  0xf9, 0x98, 0x05, 0xbf, 0x9a, 0x2b, 0x55, 0x3e, 0xc9, 0x72, 0x20, 0xbe,
  0xe0, 0x15, 0xe5, 0x3e, 0xd3, 0x7c, 0x16, 0x3c, 0x6b, 0xfa, 0x2d, 0xbd,
  0x47, 0x87, 0x20, 0xbc, 0x30, 0x85, 0xa1, 0xbd, 0x32, 0x02, 0x35, 0xbd,
  0xda, 0x46, 0xea, 0xbe, 0x3a, 0xa2, 0x10, 0x3e, 0xf6, 0xb0, 0xa4, 0xbe,
  0x05, 0x96, 0x17, 0x3e, 0x2a, 0x37, 0x99, 0x3e, 0xeb, 0x1f, 0xb0, 0xbe,
  0xe9, 0xff, 0x0f, 0x3f, 0x4c, 0xce, 0x38, 0xbe, 0xc3, 0xaf, 0xae, 0x3e,
  0xf2, 0xe9, 0x3b, 0x3e, 0x4f, 0x4a, 0x93, 0xbe, 0x71, 0x76, 0xde, 0xbe,
  0x19, 0x32, 0x98, 0x3e, 0x71, 0x1f, 0x25, 0x3d, 0xf1, 0x21, 0xe6, 0xbe,
  0x2d, 0x0c, 0x13, 0x3e, 0x83, 0xa4, 0xf7, 0xbc, 0x93, 0xac, 0x75, 0xbd,
  0x52, 0xf8, 0xff, 0xff, 0x10, 0x00, 0x00, 0x00, 0x0b, 0x00, 0x00, 0x00,
  0x1c, 0x00, 0x00, 0x00, 0x38, 0x00, 0x00, 0x00, 0x04, 0x00, 0x00, 0x00,
  0x04, 0x00, 0x00, 0x00, 0x03, 0x00, 0x00, 0x00, 0x01, 0x00, 0x00, 0x00,
  0x04, 0x00, 0x00, 0x00, 0x1a, 0x00, 0x00, 0x00, 0x73, 0x65, 0x71, 0x75,
  0x65, 0x6e, 0x74, 0x69, 0x61, 0x6c, 0x2f, 0x63, 0x6f, 0x6e, 0x76, 0x32,
  0x64, 0x5f, 0x31, 0x2f, 0x43, 0x6f, 0x6e, 0x76, 0x32, 0x44, 0x00, 0x00,
  0x54, 0xf7, 0xff, 0xff, 0x32, 0xf8, 0xff, 0xff, 0x04, 0x00, 0x00, 0x00,
  0xf0, 0x00, 0x00, 0x00, 0x0e, 0x85, 0x0b, 0xbe, 0xd5, 0xa5, 0x26, 0xbd,
  0xbe, 0xa5, 0x44, 0xbe, 0x8f, 0x2a, 0xe9, 0xb9, 0xa3, 0xc3, 0x2a, 0x3e,
  0x6b, 0x70, 0x30, 0x3c, 0x52, 0xf6, 0x15, 0xbe, 0xdf, 0xe0, 0xb2, 0xbd,
  0xe7, 0x71, 0x82, 0xbd, 0xda, 0x83, 0x0b, 0x3d, 0xc0, 0xa7, 0x5e, 0x3c,
  0x3e, 0x0d, 0x40, 0xbe, 0xd8, 0xbb, 0x98, 0x3b, 0xa6, 0xe8, 0xdc, 0x3d,
  0xc2, 0xc1, 0xa4, 0xbc, 0x38, 0x06, 0x14, 0xbe, 0x8c, 0x36, 0xff, 0x3d,
  0xcc, 0x27, 0x7f, 0xbe, 0x34, 0xff, 0xdd, 0x3c, 0x1b, 0x13, 0xe9, 0x3d,
  0xde, 0x75, 0xd9, 0x3d, 0x4d, 0xb9, 0x91, 0xbe, 0x14, 0x34, 0x17, 0x3e,
  0xad, 0x4f, 0x2e, 0x3e, 0x43, 0x8a, 0x48, 0x3e, 0xd2, 0x47, 0x25, 0x3e,
  0xc3, 0x28, 0xc1, 0xbc, 0x57, 0xfb, 0x36, 0xbd, 0x4a, 0x66, 0x70, 0x3e,
  0xba, 0x00, 0xab, 0xbd, 0x38, 0x8a, 0x8b, 0xbe, 0xe1, 0x60, 0x99, 0xbc,
  0x37, 0x5d, 0x0b, 0x3e, 0xb3, 0x11, 0xac, 0xbd, 0x29, 0xef, 0xcf, 0x3c,
  0xca, 0x10, 0x94, 0x3d, 0xe2, 0xe4, 0xfd, 0xbd, 0xb5, 0x69, 0x08, 0xbe,
  0x7a, 0x26, 0x7b, 0x3e, 0x2d, 0x85, 0x22, 0x3e, 0x67, 0xaf, 0xb1, 0xbd,
  0x03, 0x0e, 0x04, 0xbe, 0xde, 0xf9, 0xce, 0x3d, 0x5a, 0x09, 0x5f, 0xbe,
  0x3e, 0x74, 0x81, 0xbd, 0x6d, 0x71, 0x80, 0xbe, 0xa2, 0xf3, 0x4e, 0xbe,
  0x89, 0xa4, 0xbc, 0x3d, 0x80, 0x34, 0xbd, 0xbd, 0x95, 0xd9, 0xf2, 0x3d,
  0x07, 0xa2, 0x76, 0x3e, 0x0e, 0xcd, 0x68, 0xbe, 0x04, 0x93, 0x83, 0xbe,
  0xeb, 0x5b, 0x5d, 0x3c, 0x88, 0x95, 0x00, 0xbe, 0x0d, 0x4e, 0x7c, 0xbc,
  0x94, 0x5f, 0x86, 0xbe, 0x71, 0x23, 0x05, 0xbe, 0x37, 0xff, 0xab, 0x3c,
  0x79, 0x5c, 0x05, 0xbe, 0x9a, 0xf9, 0xff, 0xff, 0x10, 0x00, 0x00, 0x00,
  0x0a, 0x00, 0x00, 0x00, 0x1c, 0x00, 0x00, 0x00, 0x38, 0x00, 0x00, 0x00,
  0x04, 0x00, 0x00, 0x00, 0x04, 0x00, 0x00, 0x00, 0x03, 0x00, 0x00, 0x00,
  0x05, 0x00, 0x00, 0x00, 0x01, 0x00, 0x00, 0x00, 0x18, 0x00, 0x00, 0x00,
  0x73, 0x65, 0x71, 0x75, 0x65, 0x6e, 0x74, 0x69, 0x61, 0x6c, 0x2f, 0x63,
  0x6f, 0x6e, 0x76, 0x32, 0x64, 0x2f, 0x43, 0x6f, 0x6e, 0x76, 0x32, 0x44,
  0x00, 0x00, 0x00, 0x00, 0x9c, 0xf8, 0xff, 0xff, 0x7a, 0xf9, 0xff, 0xff,
  0x04, 0x00, 0x00, 0x00, 0x80, 0x00, 0x00, 0x00, 0x40, 0x36, 0xa9, 0xbd,
  0xf5, 0x1b, 0x02, 0xbf, 0xe8, 0x95, 0x0d, 0x3d, 0xf7, 0xec, 0xc3, 0xbe,
  0x09, 0xb4, 0xd4, 0xbe, 0xde, 0xa0, 0xea, 0x3e, 0x38, 0xce, 0x27, 0x3e,
  0xa2, 0x3b, 0x9a, 0x3d, 0xd0, 0xab, 0xd9, 0x3e, 0x23, 0x2b, 0x1a, 0x3f,
  0x94, 0x93, 0xa3, 0xbe, 0x57, 0x8a, 0x0a, 0xbf, 0x28, 0xf5, 0x4b, 0x3e,
  0x2c, 0x07, 0x20, 0x3f, 0x0b, 0xb8, 0x1f, 0xbf, 0x2b, 0x68, 0x4f, 0xbe,
  0x1a, 0x54, 0x03, 0xbf, 0xb2, 0x6d, 0x60, 0x3d, 0x1b, 0xd7, 0x1b, 0xbf,
  0x7d, 0xfb, 0x18, 0x3f, 0x05, 0xca, 0xb9, 0xbe, 0x41, 0x62, 0x19, 0xbc,
  0xb3, 0x65, 0xaf, 0x3c, 0x24, 0x4f, 0x81, 0x3d, 0xdb, 0x4b, 0x8b, 0xbc,
  0x18, 0xc1, 0x09, 0xbf, 0x08, 0x03, 0xa7, 0xbe, 0xde, 0x94, 0x41, 0xbf,
  0x2b, 0xe5, 0x94, 0xbe, 0x83, 0xc0, 0x25, 0xbd, 0xad, 0xb3, 0xc5, 0x3e,
  0x20, 0x4f, 0xf7, 0xbd, 0x72, 0xfa, 0xff, 0xff, 0x10, 0x00, 0x00, 0x00,
  0x09, 0x00, 0x00, 0x00, 0x14, 0x00, 0x00, 0x00, 0x30, 0x00, 0x00, 0x00,
  0x02, 0x00, 0x00, 0x00, 0x04, 0x00, 0x00, 0x00, 0x08, 0x00, 0x00, 0x00,
  0x19, 0x00, 0x00, 0x00, 0x73, 0x65, 0x71, 0x75, 0x65, 0x6e, 0x74, 0x69,
  0x61, 0x6c, 0x2f, 0x64, 0x65, 0x6e, 0x73, 0x65, 0x5f, 0x31, 0x2f, 0x4d,
  0x61, 0x74, 0x4d, 0x75, 0x6c, 0x00, 0x00, 0x00, 0x6c, 0xf9, 0xff, 0xff,
  0x4a, 0xfa, 0xff, 0xff, 0x04, 0x00, 0x00, 0x00, 0x00, 0x03, 0x00, 0x00,
  0xe3, 0xe3, 0x32, 0xbe, 0xdd, 0xac, 0xda, 0xbe, 0x13, 0x46, 0x91, 0x3d,
  0xd4, 0xb2, 0xca, 0xbe, 0xa1, 0x3b, 0x51, 0xbd, 0x4a, 0x6d, 0x9e, 0x3e,
  0x4d, 0x1a, 0xa1, 0x3e, 0x0a, 0x39, 0x40, 0x3e, 0xae, 0xbf, 0x26, 0xbe,
  0x09, 0x2e, 0x09, 0x3e, 0xb2, 0x5d, 0x58, 0xbe, 0xf2, 0xd6, 0x3d, 0xbe,
  0x1b, 0x1c, 0x88, 0x3d, 0xb9, 0x0f, 0x36, 0x3e, 0x73, 0xbd, 0x4c, 0x3e,
  0x92, 0xb1, 0xd0, 0x3d, 0xfb, 0x46, 0x26, 0xbd, 0xf4, 0x7d, 0xad, 0x3e,
  0x31, 0x32, 0xd3, 0xbd, 0x47, 0xa5, 0x89, 0x3e, 0x10, 0xec, 0x92, 0x3e,
  0x3a, 0xf2, 0x16, 0x3e, 0xa0, 0x76, 0x37, 0x3e, 0xe6, 0x3c, 0xa4, 0xbe,
  0x56, 0x79, 0x3f, 0x3e, 0x5c, 0xde, 0xe9, 0xbd, 0x39, 0x75, 0x9f, 0x3d,
  0x12, 0x58, 0xda, 0x3d, 0xbc, 0x50, 0x84, 0x3c, 0x72, 0x9e, 0x5c, 0x3e,
  0xbc, 0x0c, 0x6b, 0x3c, 0x85, 0x1e, 0x56, 0x3d, 0x23, 0x8e, 0x3d, 0x3e,
  0xdf, 0xec, 0xa1, 0xbe, 0x96, 0x47, 0x3d, 0x3c, 0x94, 0x30, 0x2e, 0xbe,
  0x11, 0x65, 0xbe, 0x3e, 0x6e, 0xa9, 0xad, 0x3e, 0x59, 0x2c, 0xde, 0xbc,
  0x72, 0x69, 0xd5, 0xbe, 0xaf, 0x87, 0xc0, 0xbe, 0x26, 0x93, 0xac, 0xbe,
  0x42, 0x1c, 0x0d, 0xbe, 0x58, 0xf4, 0x0c, 0x3e, 0x32, 0x57, 0x78, 0xbe,
  0x1f, 0x6e, 0x9e, 0x3c, 0x7c, 0xd9, 0x5b, 0x3d, 0x47, 0xca, 0xd0, 0x3e,
  0x72, 0x5a, 0xba, 0xbe, 0xf0, 0xc2, 0x54, 0xbe, 0xb4, 0x3c, 0x1e, 0x3e,
  0x47, 0x71, 0x36, 0xbe, 0xa4, 0x23, 0xe7, 0x3e, 0xc5, 0xbb, 0x1b, 0x3e,
  0x19, 0x64, 0xc7, 0x3d, 0x85, 0x0f, 0x8b, 0x3d, 0xa4, 0x80, 0x92, 0xbe,
  0x43, 0xe7, 0xa3, 0xbe, 0xeb, 0x57, 0xb9, 0x3e, 0x9b, 0x5c, 0xdd, 0xbd,
  0x0b, 0x43, 0x48, 0xbe, 0x7f, 0x5f, 0xef, 0x3e, 0xf3, 0xea, 0xf1, 0x3e,
  0x69, 0x34, 0xf8, 0xbe, 0x52, 0xab, 0x38, 0xbe, 0x2c, 0x8b, 0x9e, 0xbe,
  0xd2, 0xd0, 0x15, 0x3e, 0x79, 0xc5, 0xdc, 0xbc, 0x58, 0xcf, 0xe8, 0x3c,
  0xdb, 0xa0, 0x5a, 0xbd, 0xe5, 0xfe, 0xac, 0x3e, 0x25, 0x6a, 0x2f, 0x3d,
  0xae, 0x47, 0x5f, 0xbd, 0xc4, 0x75, 0x75, 0x3e, 0xaf, 0x7a, 0xf1, 0xbe,
  0x64, 0x84, 0xea, 0xbc, 0x69, 0xc4, 0x03, 0x3d, 0x39, 0xb8, 0x78, 0xbe,
  0x05, 0xa9, 0x86, 0xbe, 0xbf, 0x8a, 0xcc, 0xbe, 0x94, 0x2d, 0x16, 0x3d,
  0x5f, 0x7c, 0x4b, 0x3d, 0x11, 0x80, 0xa2, 0xbd, 0x55, 0x3c, 0xc0, 0xbe,
  0xe3, 0x9d, 0xaf, 0xbe, 0xae, 0x78, 0x09, 0xbe, 0x74, 0x2e, 0x93, 0x3d,
  0xa5, 0x39, 0x36, 0x3e, 0x53, 0xe6, 0xa2, 0x3e, 0xb9, 0x0e, 0xa7, 0xbe,
  0x02, 0x07, 0xf0, 0x3e, 0xa9, 0x9c, 0xb2, 0xbe, 0xe8, 0x59, 0xcd, 0xbd,
  0xb8, 0x1a, 0xd2, 0xbe, 0x0e, 0x56, 0x6d, 0xbe, 0xf7, 0x37, 0x8d, 0x3e,
  0xb3, 0x67, 0x8f, 0xbe, 0x47, 0xaf, 0x46, 0x3e, 0xe4, 0xc3, 0x5e, 0xbd,
  0x73, 0x93, 0x97, 0x3e, 0x96, 0x8a, 0x7a, 0xbe, 0x5d, 0xd0, 0x98, 0xbe,
  0x08, 0xa7, 0xda, 0xbe, 0x53, 0x6e, 0x99, 0xbe, 0x0c, 0xa2, 0xc3, 0xbe,
  0x50, 0x8b, 0x0a, 0x3e, 0x74, 0x8d, 0xca, 0xbe, 0x86, 0xb5, 0xbe, 0xbe,
  0x87, 0x10, 0x99, 0x3e, 0x5d, 0x23, 0x85, 0x3e, 0x91, 0xaa, 0xe8, 0xbc,
  0x22, 0x23, 0x95, 0xbe, 0x33, 0xb4, 0xcc, 0x3d, 0x3f, 0xa9, 0x57, 0x3e,
  0xb4, 0xd4, 0xd7, 0x3d, 0x09, 0x65, 0xd9, 0xbe, 0x11, 0xb0, 0xa3, 0x3d,
  0x8e, 0xf4, 0x42, 0x3e, 0xea, 0x69, 0x4e, 0xbd, 0xf1, 0xe3, 0x92, 0xbd,
  0x36, 0x30, 0x4f, 0x3e, 0xa8, 0x89, 0x29, 0xbd, 0x7e, 0x36, 0xe7, 0x3b,
  0x5f, 0x2a, 0x27, 0xbd, 0x09, 0xa9, 0x6a, 0xbc, 0x2c, 0xe7, 0x2b, 0xbd,
  0x6c, 0x7e, 0xaa, 0x3e, 0x83, 0xc6, 0x4d, 0xbe, 0x34, 0x1c, 0x1b, 0xbd,
  0x31, 0x67, 0xd3, 0x3e, 0x08, 0xaa, 0xff, 0x3c, 0x58, 0xde, 0xe7, 0xbe,
  0xaa, 0x95, 0x9f, 0x3e, 0x60, 0x9d, 0x75, 0x3e, 0xd9, 0xc0, 0x71, 0x3d,
  0x06, 0x65, 0xe1, 0x3c, 0xcc, 0x81, 0x8b, 0x3e, 0x4a, 0x44, 0xaf, 0xbd,
  0x2f, 0x23, 0xf2, 0x3d, 0x2e, 0x73, 0xc2, 0xbd, 0x87, 0x04, 0x4a, 0x3e,
  0x31, 0xad, 0x23, 0x3d, 0x47, 0x48, 0xf4, 0x3e, 0x29, 0xbd, 0xd3, 0xbe,
  0xb7, 0xe1, 0x0f, 0x3f, 0xef, 0x3d, 0x40, 0x3e, 0x37, 0xc1, 0xce, 0xbe,
  0xec, 0xcb, 0xfd, 0x3e, 0xdc, 0x11, 0x9a, 0x3d, 0xf3, 0xc2, 0x64, 0xbe,
  0xec, 0x1e, 0x39, 0x3e, 0x40, 0xce, 0x25, 0x3e, 0xd3, 0xf2, 0x22, 0x3d,
  0xef, 0xca, 0xdd, 0x3e, 0xee, 0x89, 0xab, 0xbe, 0x0d, 0xcb, 0x11, 0x3e,
  0xb4, 0xaf, 0x38, 0xbe, 0xec, 0x81, 0x7b, 0x3e, 0x49, 0xcb, 0x3e, 0x3e,
  0x30, 0x27, 0x9e, 0xbd, 0x31, 0xfe, 0xae, 0x3e, 0x82, 0xf1, 0x27, 0xbe,
  0x0c, 0xe3, 0xd7, 0xbd, 0xed, 0x42, 0x85, 0x3e, 0x2d, 0xb7, 0x9f, 0x3d,
  0xe6, 0x66, 0x3c, 0x3c, 0xee, 0x5f, 0xdb, 0x3e, 0x5e, 0x87, 0xcb, 0xbd,
  0xfd, 0x1a, 0x92, 0xbe, 0x78, 0x91, 0x98, 0x3e, 0xa7, 0xf1, 0x9e, 0x3e,
  0x42, 0xc7, 0xc6, 0x3d, 0xd5, 0xca, 0x82, 0xbd, 0xac, 0xd2, 0xac, 0xbe,
  0x50, 0x67, 0x27, 0x3e, 0x4c, 0x6b, 0xc2, 0x3c, 0xf0, 0xee, 0xf9, 0xbe,
  0xdd, 0xe3, 0x81, 0x3e, 0xd4, 0xc3, 0xd1, 0xbe, 0xe9, 0x2a, 0xc9, 0x3d,
  0xe4, 0xec, 0x87, 0xbe, 0xf6, 0x52, 0x98, 0xbe, 0x71, 0xdc, 0xb2, 0x3e,
  0xab, 0xd2, 0x2d, 0x3e, 0xb5, 0x71, 0xb5, 0xbe, 0x09, 0x48, 0xcc, 0xbe,
  0xdc, 0x15, 0xe7, 0x3d, 0xcb, 0x6b, 0x0c, 0x3e, 0xb4, 0xfa, 0x8b, 0xbe,
  0xf9, 0xdc, 0x57, 0x3e, 0xf4, 0x57, 0x0d, 0xbe, 0x5b, 0x0e, 0x37, 0x3e,
  0xc2, 0xfd, 0xff, 0xff, 0x10, 0x00, 0x00, 0x00, 0x08, 0x00, 0x00, 0x00,
  0x14, 0x00, 0x00, 0x00, 0x2c, 0x00, 0x00, 0x00, 0x02, 0x00, 0x00, 0x00,
  0x08, 0x00, 0x00, 0x00, 0x18, 0x00, 0x00, 0x00, 0x17, 0x00, 0x00, 0x00,
  0x73, 0x65, 0x71, 0x75, 0x65, 0x6e, 0x74, 0x69, 0x61, 0x6c, 0x2f, 0x64,
  0x65, 0x6e, 0x73, 0x65, 0x2f, 0x4d, 0x61, 0x74, 0x4d, 0x75, 0x6c, 0x00,
  0xb8, 0xfc, 0xff, 0xff, 0x96, 0xfd, 0xff, 0xff, 0x04, 0x00, 0x00, 0x00,
  0x10, 0x00, 0x00, 0x00, 0x27, 0xe7, 0xea, 0xbc, 0xdf, 0x6c, 0x89, 0xbc,
  0x38, 0xe5, 0xf2, 0xbc, 0xff, 0xcf, 0xb3, 0x3d, 0x1e, 0xfe, 0xff, 0xff,
  0x10, 0x00, 0x00, 0x00, 0x07, 0x00, 0x00, 0x00, 0x10, 0x00, 0x00, 0x00,
  0x44, 0x00, 0x00, 0x00, 0x01, 0x00, 0x00, 0x00, 0x04, 0x00, 0x00, 0x00,
  0x31, 0x00, 0x00, 0x00, 0x73, 0x65, 0x71, 0x75, 0x65, 0x6e, 0x74, 0x69,
  0x61, 0x6c, 0x2f, 0x63, 0x6f, 0x6e, 0x76, 0x32, 0x64, 0x2f, 0x42, 0x69,
  0x61, 0x73, 0x41, 0x64, 0x64, 0x2f, 0x52, 0x65, 0x61, 0x64, 0x56, 0x61,
  0x72, 0x69, 0x61, 0x62, 0x6c, 0x65, 0x4f, 0x70, 0x2f, 0x72, 0x65, 0x73,
  0x6f, 0x75, 0x72, 0x63, 0x65, 0x00, 0x00, 0x00, 0x2c, 0xfd, 0xff, 0xff,
  0x0a, 0xfe, 0xff, 0xff, 0x04, 0x00, 0x00, 0x00, 0x10, 0x00, 0x00, 0x00,
  0x26, 0xc1, 0x38, 0xbe, 0x6c, 0x32, 0xbb, 0x3f, 0x53, 0xbd, 0x94, 0x3d,
  0x7b, 0x48, 0x87, 0x3c, 0x92, 0xfe, 0xff, 0xff, 0x10, 0x00, 0x00, 0x00,
  0x06, 0x00, 0x00, 0x00, 0x10, 0x00, 0x00, 0x00, 0x44, 0x00, 0x00, 0x00,
  0x01, 0x00, 0x00, 0x00, 0x04, 0x00, 0x00, 0x00, 0x33, 0x00, 0x00, 0x00,
  0x73, 0x65, 0x71, 0x75, 0x65, 0x6e, 0x74, 0x69, 0x61, 0x6c, 0x2f, 0x63,
  0x6f, 0x6e, 0x76, 0x32, 0x64, 0x5f, 0x31, 0x2f, 0x42, 0x69, 0x61, 0x73,
  0x41, 0x64, 0x64, 0x2f, 0x52, 0x65, 0x61, 0x64, 0x56, 0x61, 0x72, 0x69,
  0x61, 0x62, 0x6c, 0x65, 0x4f, 0x70, 0x2f, 0x72, 0x65, 0x73, 0x6f, 0x75,
  0x72, 0x63, 0x65, 0x00, 0xa0, 0xfd, 0xff, 0xff, 0x7e, 0xfe, 0xff, 0xff,
  0x04, 0x00, 0x00, 0x00, 0x10, 0x00, 0x00, 0x00, 0xef, 0x0f, 0x1c, 0xbe,
  0x90, 0x1d, 0xcc, 0x3b, 0x7f, 0x64, 0xec, 0x3e, 0xd7, 0xb1, 0x4b, 0xbe,
  0x06, 0xff, 0xff, 0xff, 0x10, 0x00, 0x00, 0x00, 0x05, 0x00, 0x00, 0x00,
  0x10, 0x00, 0x00, 0x00, 0x44, 0x00, 0x00, 0x00, 0x01, 0x00, 0x00, 0x00,
  0x04, 0x00, 0x00, 0x00, 0x33, 0x00, 0x00, 0x00, 0x73, 0x65, 0x71, 0x75,
  0x65, 0x6e, 0x74, 0x69, 0x61, 0x6c, 0x2f, 0x63, 0x6f, 0x6e, 0x76, 0x32,
  0x64, 0x5f, 0x32, 0x2f, 0x42, 0x69, 0x61, 0x73, 0x41, 0x64, 0x64, 0x2f,
  0x52, 0x65, 0x61, 0x64, 0x56, 0x61, 0x72, 0x69, 0x61, 0x62, 0x6c, 0x65,
  0x4f, 0x70, 0x2f, 0x72, 0x65, 0x73, 0x6f, 0x75, 0x72, 0x63, 0x65, 0x00,
  0x14, 0xfe, 0xff, 0xff, 0xf2, 0xfe, 0xff, 0xff, 0x04, 0x00, 0x00, 0x00,
  0x20, 0x00, 0x00, 0x00, 0xb2, 0xcb, 0xb0, 0x3e, 0xef, 0xcd, 0x04, 0x3f,
  0x21, 0x4c, 0xed, 0xbd, 0x37, 0x33, 0x9d, 0xbe, 0x0e, 0x41, 0xfa, 0x3e,
  0x0b, 0x40, 0x46, 0x3f, 0xa2, 0xaf, 0x57, 0xbe, 0x0f, 0xa2, 0xe0, 0xbe,
  0x8a, 0xff, 0xff, 0xff, 0x10, 0x00, 0x00, 0x00, 0x04, 0x00, 0x00, 0x00,
  0x10, 0x00, 0x00, 0x00, 0x44, 0x00, 0x00, 0x00, 0x01, 0x00, 0x00, 0x00,
  0x08, 0x00, 0x00, 0x00, 0x30, 0x00, 0x00, 0x00, 0x73, 0x65, 0x71, 0x75,
  0x65, 0x6e, 0x74, 0x69, 0x61, 0x6c, 0x2f, 0x64, 0x65, 0x6e, 0x73, 0x65,
  0x2f, 0x42, 0x69, 0x61, 0x73, 0x41, 0x64, 0x64, 0x2f, 0x52, 0x65, 0x61,
  0x64, 0x56, 0x61, 0x72, 0x69, 0x61, 0x62, 0x6c, 0x65, 0x4f, 0x70, 0x2f,
  0x72, 0x65, 0x73, 0x6f, 0x75, 0x72, 0x63, 0x65, 0x00, 0x00, 0x00, 0x00,
  0x98, 0xfe, 0xff, 0xff, 0x76, 0xff, 0xff, 0xff, 0x04, 0x00, 0x00, 0x00,
  0x10, 0x00, 0x00, 0x00, 0x18, 0x1b, 0x85, 0xbf, 0x87, 0x1d, 0x9e, 0x3e,
  0x76, 0xca, 0x57, 0x3f, 0x8b, 0x32, 0x7e, 0x3e, 0x00, 0x00, 0x0e, 0x00,
  0x14, 0x00, 0x04, 0x00, 0x00, 0x00, 0x08, 0x00, 0x0c, 0x00, 0x10, 0x00,
  0x0e, 0x00, 0x00, 0x00, 0x10, 0x00, 0x00, 0x00, 0x03, 0x00, 0x00, 0x00,
  0x10, 0x00, 0x00, 0x00, 0x48, 0x00, 0x00, 0x00, 0x01, 0x00, 0x00, 0x00,
  0x04, 0x00, 0x00, 0x00, 0x32, 0x00, 0x00, 0x00, 0x73, 0x65, 0x71, 0x75,
  0x65, 0x6e, 0x74, 0x69, 0x61, 0x6c, 0x2f, 0x64, 0x65, 0x6e, 0x73, 0x65,
  0x5f, 0x31, 0x2f, 0x42, 0x69, 0x61, 0x73, 0x41, 0x64, 0x64, 0x2f, 0x52,
  0x65, 0x61, 0x64, 0x56, 0x61, 0x72, 0x69, 0x61, 0x62, 0x6c, 0x65, 0x4f,
  0x70, 0x2f, 0x72, 0x65, 0x73, 0x6f, 0x75, 0x72, 0x63, 0x65, 0x00, 0x00,
  0x04, 0x00, 0x06, 0x00, 0x04, 0x00, 0x00, 0x00, 0x00, 0x00, 0x06, 0x00,
  0x08, 0x00, 0x04, 0x00, 0x06, 0x00, 0x00, 0x00, 0x04, 0x00, 0x00, 0x00,
  0x08, 0x00, 0x00, 0x00, 0xff, 0xff, 0xff, 0xff, 0x18, 0x00, 0x00, 0x00,
  0x00, 0x00, 0x0e, 0x00, 0x18, 0x00, 0x08, 0x00, 0x07, 0x00, 0x0c, 0x00,
  0x10, 0x00, 0x14, 0x00, 0x0e, 0x00, 0x00, 0x00, 0x00, 0x00, 0x00, 0x02,
  0x10, 0x00, 0x00, 0x00, 0x02, 0x00, 0x00, 0x00, 0x10, 0x00, 0x00, 0x00,
  0x2c, 0x00, 0x00, 0x00, 0x01, 0x00, 0x00, 0x00, 0x02, 0x00, 0x00, 0x00,
  0x18, 0x00, 0x00, 0x00, 0x73, 0x65, 0x71, 0x75, 0x65, 0x6e, 0x74, 0x69,
  0x61, 0x6c, 0x2f, 0x66, 0x6c, 0x61, 0x74, 0x74, 0x65, 0x6e, 0x2f, 0x43,
  0x6f, 0x6e, 0x73, 0x74, 0x00, 0x00, 0x00, 0x00, 0x90, 0xff, 0xff, 0xff,
  0x14, 0x00, 0x18, 0x00, 0x04, 0x00, 0x00, 0x00, 0x08, 0x00, 0x0c, 0x00,
  0x10, 0x00, 0x00, 0x00, 0x00, 0x00, 0x14, 0x00, 0x14, 0x00, 0x00, 0x00,
  0x14, 0x00, 0x00, 0x00, 0x01, 0x00, 0x00, 0x00, 0x20, 0x00, 0x00, 0x00,
  0x44, 0x00, 0x00, 0x00, 0x2c, 0x00, 0x00, 0x00, 0x04, 0x00, 0x00, 0x00,
  0x01, 0x00, 0x00, 0x00, 0x32, 0x00, 0x00, 0x00, 0x05, 0x00, 0x00, 0x00,
  0x01, 0x00, 0x00, 0x00, 0x0c, 0x00, 0x00, 0x00, 0x63, 0x6f, 0x6e, 0x76,
  0x32, 0x64, 0x5f, 0x69, 0x6e, 0x70, 0x75, 0x74, 0x00, 0x00, 0x00, 0x00,
  0x04, 0x00, 0x00, 0x00, 0xff, 0xff, 0xff, 0xff, 0x32, 0x00, 0x00, 0x00,
  0x05, 0x00, 0x00, 0x00, 0x01, 0x00, 0x00, 0x00, 0xfc, 0xff, 0xff, 0xff,
  0x04, 0x00, 0x04, 0x00, 0x04, 0x00, 0x00, 0x00
};
unsigned int model_tflite_len = 5432;
