unsigned char model_tflite[] = {
  0x1c, 0x00, 0x00, 0x00, 0x54, 0x46, 0x4c, 0x33, 0x14, 0x00, 0x20, 0x00,
  0x04, 0x00, 0x08, 0x00, 0x0c, 0x00, 0x10, 0x00, 0x14, 0x00, 0x00, 0x00,
  0x18, 0x00, 0x1c, 0x00, 0x14, 0x00, 0x00, 0x00, 0x03, 0x00, 0x00, 0x00,
  0x18, 0x00, 0x00, 0x00, 0x2c, 0x00, 0x00, 0x00, 0x58, 0x01, 0x00, 0x00,
  0x2c, 0x00, 0x00, 0x00, 0x00, 0x01, 0x00, 0x00, 0x78, 0x00, 0x00, 0x00,
  0x05, 0x00, 0x00, 0x00, 0x60, 0x09, 0x00, 0x00, 0x78, 0x08, 0x00, 0x00,
  0x54, 0x04, 0x00, 0x00, 0x84, 0x03, 0x00, 0x00, 0x34, 0x02, 0x00, 0x00,
  0x01, 0x00, 0x00, 0x00, 0x50, 0x01, 0x00, 0x00, 0x14, 0x00, 0x00, 0x00,
  0x1c, 0x13, 0x00, 0x00, 0x18, 0x13, 0x00, 0x00, 0x20, 0x12, 0x00, 0x00,
  0xa4, 0x11, 0x00, 0x00, 0x50, 0x0e, 0x00, 0x00, 0x7c, 0x0d, 0x00, 0x00,
  0x2c, 0x0c, 0x00, 0x00, 0x0c, 0x0b, 0x00, 0x00, 0xec, 0x09, 0x00, 0x00,
  0xf8, 0x12, 0x00, 0x00, 0xf4, 0x12, 0x00, 0x00, 0xf0, 0x12, 0x00, 0x00,
  0xec, 0x12, 0x00, 0x00, 0xe8, 0x12, 0x00, 0x00, 0xe4, 0x12, 0x00, 0x00,
  0xe0, 0x12, 0x00, 0x00, 0xdc, 0x12, 0x00, 0x00, 0xd8, 0x12, 0x00, 0x00,
  0xd4, 0x12, 0x00, 0x00, 0xbc, 0x00, 0x00, 0x00, 0x01, 0x00, 0x00, 0x00,
  0x10, 0x00, 0x00, 0x00, 0x00, 0x00, 0x0a, 0x00, 0x10, 0x00, 0x0c, 0x00,
  0x08, 0x00, 0x04, 0x00, 0x0a, 0x00, 0x00, 0x00, 0x0c, 0x00, 0x00, 0x00,
  0x1c, 0x00, 0x00, 0x00, 0x20, 0x00, 0x00, 0x00, 0x0f, 0x00, 0x00, 0x00,
  0x73, 0x65, 0x72, 0x76, 0x69, 0x6e, 0x67, 0x5f, 0x64, 0x65, 0x66, 0x61,
  0x75, 0x6c, 0x74, 0x00, 0x01, 0x00, 0x00, 0x00, 0x14, 0x00, 0x00, 0x00,
  0x01, 0x00, 0x00, 0x00, 0x24, 0x00, 0x00, 0x00, 0x08, 0x00, 0x0c, 0x00,
  0x08, 0x00, 0x04, 0x00, 0x08, 0x00, 0x00, 0x00, 0x11, 0x00, 0x00, 0x00,
  0x04, 0x00, 0x00, 0x00, 0x07, 0x00, 0x00, 0x00, 0x64, 0x65, 0x6e, 0x73,
  0x65, 0x5f, 0x33, 0x00, 0x96, 0xee, 0xff, 0xff, 0x04, 0x00, 0x00, 0x00,
  0x0e, 0x00, 0x00, 0x00, 0x63, 0x6f, 0x6e, 0x76, 0x32, 0x64, 0x5f, 0x33,
  0x5f, 0x69, 0x6e, 0x70, 0x75, 0x74, 0x00, 0x00, 0x01, 0x00, 0x00, 0x00,
  0x0c, 0x00, 0x00, 0x00, 0x08, 0x00, 0x0c, 0x00, 0x04, 0x00, 0x08, 0x00,
  0x08, 0x00, 0x00, 0x00, 0x08, 0x00, 0x00, 0x00, 0x13, 0x00, 0x00, 0x00,
  0x13, 0x00, 0x00, 0x00, 0x6d, 0x69, 0x6e, 0x5f, 0x72, 0x75, 0x6e, 0x74,
  0x69, 0x6d, 0x65, 0x5f, 0x76, 0x65, 0x72, 0x73, 0x69, 0x6f, 0x6e, 0x00,
  0xe6, 0xee, 0xff, 0xff, 0x04, 0x00, 0x00, 0x00, 0x10, 0x00, 0x00, 0x00,
  0x31, 0x2e, 0x35, 0x2e, 0x30, 0x00, 0x00, 0x00, 0x00, 0x00, 0x00, 0x00,
  0x00, 0x00, 0x00, 0x00, 0x0f, 0x00, 0x00, 0x00, 0x4d, 0x4c, 0x49, 0x52,
  0x20, 0x43, 0x6f, 0x6e, 0x76, 0x65, 0x72, 0x74, 0x65, 0x64, 0x2e, 0x00,
  0x00, 0x00, 0x0e, 0x00, 0x18, 0x00, 0x04, 0x00, 0x08, 0x00, 0x0c, 0x00,
  0x10, 0x00, 0x14, 0x00, 0x0e, 0x00, 0x00, 0x00, 0x14, 0x00, 0x00, 0x00,
  0x5c, 0x00, 0x00, 0x00, 0x60, 0x00, 0x00, 0x00, 0x64, 0x00, 0x00, 0x00,
  0x8c, 0x00, 0x00, 0x00, 0x12, 0x00, 0x00, 0x00, 0x48, 0x11, 0x00, 0x00,
  0xec, 0x10, 0x00, 0x00, 0x68, 0x10, 0x00, 0x00, 0xfc, 0x0f, 0x00, 0x00,
  0xa8, 0x0c, 0x00, 0x00, 0xc8, 0x0b, 0x00, 0x00, 0x78, 0x0a, 0x00, 0x00,
  0x58, 0x09, 0x00, 0x00, 0xcc, 0x07, 0x00, 0x00, 0xe4, 0x06, 0x00, 0x00,
  0xb4, 0x05, 0x00, 0x00, 0xf8, 0x04, 0x00, 0x00, 0x08, 0x04, 0x00, 0x00,
  0x58, 0x03, 0x00, 0x00, 0xb0, 0x02, 0x00, 0x00, 0xe0, 0x01, 0x00, 0x00,
  0x18, 0x01, 0x00, 0x00, 0x8c, 0x00, 0x00, 0x00, 0x01, 0x00, 0x00, 0x00,
  0x00, 0x00, 0x00, 0x00, 0x01, 0x00, 0x00, 0x00, 0x11, 0x00, 0x00, 0x00,
  0x0a, 0x00, 0x00, 0x00, 0x2c, 0x07, 0x00, 0x00, 0x48, 0x06, 0x00, 0x00,
  0x30, 0x05, 0x00, 0x00, 0x70, 0x04, 0x00, 0x00, 0x90, 0x03, 0x00, 0x00,
  0xe0, 0x02, 0x00, 0x00, 0x40, 0x02, 0x00, 0x00, 0x54, 0x01, 0x00, 0x00,
  0xa8, 0x00, 0x00, 0x00, 0x10, 0x00, 0x00, 0x00, 0x04, 0x00, 0x00, 0x00,
  0x6d, 0x61, 0x69, 0x6e, 0x00, 0x00, 0x00, 0x00, 0x4e, 0xfd, 0xff, 0xff,
  0x00, 0x00, 0x00, 0x09, 0x04, 0x00, 0x00, 0x00, 0x1c, 0x00, 0x00, 0x00,
  0x10, 0x00, 0x00, 0x00, 0x04, 0x00, 0x00, 0x00, 0xea, 0xef, 0xff, 0xff,
  0x00, 0x00, 0x80, 0x3f, 0x01, 0x00, 0x00, 0x00, 0x11, 0x00, 0x00, 0x00,
  0x01, 0x00, 0x00, 0x00, 0x10, 0x00, 0x00, 0x00, 0xf0, 0xf8, 0xff, 0xff,
  0x19, 0x00, 0x00, 0x00, 0x00, 0x00, 0x00, 0x19, 0x01, 0x00, 0x00, 0x00,
  0x9c, 0xef, 0xff, 0xff, 0x14, 0x00, 0x00, 0x00, 0x12, 0x00, 0x00, 0x00,
  0x18, 0x00, 0x00, 0x00, 0x40, 0x00, 0x00, 0x00, 0x30, 0x00, 0x00, 0x00,
  0x02, 0x00, 0x00, 0x00, 0x01, 0x00, 0x00, 0x00, 0x04, 0x00, 0x00, 0x00,
  0x19, 0x00, 0x00, 0x00, 0x53, 0x74, 0x61, 0x74, 0x65, 0x66, 0x75, 0x6c,
  0x50, 0x61, 0x72, 0x74, 0x69, 0x74, 0x69, 0x6f, 0x6e, 0x65, 0x64, 0x43,
  0x61, 0x6c, 0x6c, 0x3a, 0x30, 0x00, 0x00, 0x00, 0x02, 0x00, 0x00, 0x00,
  0xff, 0xff, 0xff, 0xff, 0x04, 0x00, 0x00, 0x00, 0x6c, 0xef, 0xff, 0xff,
  0xe2, 0xfd, 0xff, 0xff, 0x00, 0x00, 0x00, 0x08, 0x03, 0x00, 0x00, 0x00,
  0x18, 0x00, 0x00, 0x00, 0x0c, 0x00, 0x00, 0x00, 0x04, 0x00, 0x00, 0x00,
  0x88, 0xef, 0xff, 0xff, 0x01, 0x00, 0x00, 0x00, 0x10, 0x00, 0x00, 0x00,
  0x03, 0x00, 0x00, 0x00, 0x0f, 0x00, 0x00, 0x00, 0x04, 0x00, 0x00, 0x00,
  0xff, 0xff, 0xff, 0xff, 0x24, 0xf0, 0xff, 0xff, 0x14, 0x00, 0x00, 0x00,
  0x11, 0x00, 0x00, 0x00, 0x18, 0x00, 0x00, 0x00, 0x60, 0x00, 0x00, 0x00,
  0x50, 0x00, 0x00, 0x00, 0x02, 0x00, 0x00, 0x00, 0x01, 0x00, 0x00, 0x00,
  0x04, 0x00, 0x00, 0x00, 0x38, 0x00, 0x00, 0x00, 0x73, 0x65, 0x71, 0x75,
  0x65, 0x6e, 0x74, 0x69, 0x61, 0x6c, 0x5f, 0x31, 0x2f, 0x64, 0x65, 0x6e,
  0x73, 0x65, 0x5f, 0x33, 0x2f, 0x4d, 0x61, 0x74, 0x4d, 0x75, 0x6c, 0x3b,
  0x73, 0x65, 0x71, 0x75, 0x65, 0x6e, 0x74, 0x69, 0x61, 0x6c, 0x5f, 0x31,
  0x2f, 0x64, 0x65, 0x6e, 0x73, 0x65, 0x5f, 0x33, 0x2f, 0x42, 0x69, 0x61,
  0x73, 0x41, 0x64, 0x64, 0x00, 0x00, 0x00, 0x00, 0x02, 0x00, 0x00, 0x00,
  0xff, 0xff, 0xff, 0xff, 0x04, 0x00, 0x00, 0x00, 0x14, 0xf0, 0xff, 0xff,
  0x32, 0xfb, 0xff, 0xff, 0x00, 0x00, 0x00, 0x08, 0x03, 0x00, 0x00, 0x00,
  0x24, 0x00, 0x00, 0x00, 0x18, 0x00, 0x00, 0x00, 0x0c, 0x00, 0x00, 0x00,
  0x00, 0x00, 0x06, 0x00, 0x08, 0x00, 0x07, 0x00, 0x06, 0x00, 0x00, 0x00,
  0x00, 0x00, 0x00, 0x01, 0x01, 0x00, 0x00, 0x00, 0x0f, 0x00, 0x00, 0x00,
  0x03, 0x00, 0x00, 0x00, 0x0e, 0x00, 0x00, 0x00, 0x03, 0x00, 0x00, 0x00,
  0xff, 0xff, 0xff, 0xff, 0x3c, 0xfa, 0xff, 0xff, 0x09, 0x00, 0x00, 0x00,
  0x00, 0x00, 0x00, 0x09, 0x01, 0x00, 0x00, 0x00, 0xe8, 0xf0, 0xff, 0xff,
  0x14, 0x00, 0x00, 0x00, 0x10, 0x00, 0x00, 0x00, 0x18, 0x00, 0x00, 0x00,
  0x78, 0x00, 0x00, 0x00, 0x68, 0x00, 0x00, 0x00, 0x02, 0x00, 0x00, 0x00,
  0x01, 0x00, 0x00, 0x00, 0x08, 0x00, 0x00, 0x00, 0x52, 0x00, 0x00, 0x00,
  0x73, 0x65, 0x71, 0x75, 0x65, 0x6e, 0x74, 0x69, 0x61, 0x6c, 0x5f, 0x31,
  0x2f, 0x64, 0x65, 0x6e, 0x73, 0x65, 0x5f, 0x32, 0x2f, 0x4d, 0x61, 0x74,
  0x4d, 0x75, 0x6c, 0x3b, 0x73, 0x65, 0x71, 0x75, 0x65, 0x6e, 0x74, 0x69,
  0x61, 0x6c, 0x5f, 0x31, 0x2f, 0x64, 0x65, 0x6e, 0x73, 0x65, 0x5f, 0x32,
  0x2f, 0x52, 0x65, 0x6c, 0x75, 0x3b, 0x73, 0x65, 0x71, 0x75, 0x65, 0x6e,
  0x74, 0x69, 0x61, 0x6c, 0x5f, 0x31, 0x2f, 0x64, 0x65, 0x6e, 0x73, 0x65,
  0x5f, 0x32, 0x2f, 0x42, 0x69, 0x61, 0x73, 0x41, 0x64, 0x64, 0x00, 0x00,
  0x02, 0x00, 0x00, 0x00, 0xff, 0xff, 0xff, 0xff, 0x08, 0x00, 0x00, 0x00,
  0xf0, 0xf1, 0xff, 0xff, 0x00, 0x00, 0x0a, 0x00, 0x10, 0x00, 0x04, 0x00,
  0x08, 0x00, 0x0c, 0x00, 0x0a, 0x00, 0x00, 0x00, 0x02, 0x00, 0x00, 0x00,
  0x10, 0x00, 0x00, 0x00, 0x04, 0x00, 0x00, 0x00, 0x01, 0x00, 0x00, 0x00,
  0x0e, 0x00, 0x00, 0x00, 0x02, 0x00, 0x00, 0x00, 0x0d, 0x00, 0x00, 0x00,
  0x02, 0x00, 0x00, 0x00, 0x08, 0xfb, 0xff, 0xff, 0x16, 0x00, 0x00, 0x00,
  0x00, 0x00, 0x00, 0x16, 0x01, 0x00, 0x00, 0x00, 0xb4, 0xf1, 0xff, 0xff,
  0x14, 0x00, 0x00, 0x00, 0x0f, 0x00, 0x00, 0x00, 0x18, 0x00, 0x00, 0x00,
  0x44, 0x00, 0x00, 0x00, 0x34, 0x00, 0x00, 0x00, 0x02, 0x00, 0x00, 0x00,
  0x01, 0x00, 0x00, 0x00, 0x18, 0x00, 0x00, 0x00, 0x1e, 0x00, 0x00, 0x00,
  0x73, 0x65, 0x71, 0x75, 0x65, 0x6e, 0x74, 0x69, 0x61, 0x6c, 0x5f, 0x31,
  0x2f, 0x66, 0x6c, 0x61, 0x74, 0x74, 0x65, 0x6e, 0x5f, 0x31, 0x2f, 0x52,
  0x65, 0x73, 0x68, 0x61, 0x70, 0x65, 0x00, 0x00, 0x02, 0x00, 0x00, 0x00,
  0xff, 0xff, 0xff, 0xff, 0x18, 0x00, 0x00, 0x00, 0x88, 0xf2, 0xff, 0xff,
  0x00, 0x00, 0x0e, 0x00, 0x18, 0x00, 0x08, 0x00, 0x0c, 0x00, 0x10, 0x00,
  0x07, 0x00, 0x14, 0x00, 0x0e, 0x00, 0x00, 0x00, 0x00, 0x00, 0x00, 0x05,
  0x01, 0x00, 0x00, 0x00, 0x28, 0x00, 0x00, 0x00, 0x1c, 0x00, 0x00, 0x00,
  0x04, 0x00, 0x00, 0x00, 0x76, 0xfe, 0xff, 0xff, 0x02, 0x00, 0x00, 0x00,
  0x01, 0x00, 0x00, 0x00, 0x02, 0x00, 0x00, 0x00, 0x01, 0x00, 0x00, 0x00,
  0x01, 0x00, 0x00, 0x00, 0x0d, 0x00, 0x00, 0x00, 0x01, 0x00, 0x00, 0x00,
  0x0c, 0x00, 0x00, 0x00, 0x58, 0xf2, 0xff, 0xff, 0x14, 0x00, 0x00, 0x00,
  0x0e, 0x00, 0x00, 0x00, 0x20, 0x00, 0x00, 0x00, 0x5c, 0x00, 0x00, 0x00,
  0x44, 0x00, 0x00, 0x00, 0x04, 0x00, 0x00, 0x00, 0x01, 0x00, 0x00, 0x00,
  0x06, 0x00, 0x00, 0x00, 0x01, 0x00, 0x00, 0x00, 0x04, 0x00, 0x00, 0x00,
  0x24, 0x00, 0x00, 0x00, 0x73, 0x65, 0x71, 0x75, 0x65, 0x6e, 0x74, 0x69,
  0x61, 0x6c, 0x5f, 0x31, 0x2f, 0x6d, 0x61, 0x78, 0x5f, 0x70, 0x6f, 0x6f,
  0x6c, 0x69, 0x6e, 0x67, 0x32, 0x64, 0x5f, 0x35, 0x2f, 0x4d, 0x61, 0x78,
  0x50, 0x6f, 0x6f, 0x6c, 0x00, 0x00, 0x00, 0x00, 0x04, 0x00, 0x00, 0x00,
  0xff, 0xff, 0xff, 0xff, 0x06, 0x00, 0x00, 0x00, 0x01, 0x00, 0x00, 0x00,
  0x04, 0x00, 0x00, 0x00, 0x44, 0xf2, 0xff, 0xff, 0x82, 0xfc, 0xff, 0xff,
  0x00, 0x00, 0x00, 0x01, 0x24, 0x00, 0x00, 0x00, 0x18, 0x00, 0x00, 0x00,
  0x04, 0x00, 0x00, 0x00, 0x68, 0xfe, 0xff, 0xff, 0x01, 0x00, 0x00, 0x00,
  0x01, 0x00, 0x00, 0x00, 0x00, 0x00, 0x00, 0x01, 0x01, 0x00, 0x00, 0x00,
  0x0c, 0x00, 0x00, 0x00, 0x03, 0x00, 0x00, 0x00, 0x0b, 0x00, 0x00, 0x00,
  0x07, 0x00, 0x00, 0x00, 0x01, 0x00, 0x00, 0x00, 0x04, 0xf3, 0xff, 0xff,
  0x14, 0x00, 0x00, 0x00, 0x0d, 0x00, 0x00, 0x00, 0x20, 0x00, 0x00, 0x00,
  0x8c, 0x00, 0x00, 0x00, 0x74, 0x00, 0x00, 0x00, 0x04, 0x00, 0x00, 0x00,
  0x01, 0x00, 0x00, 0x00, 0x0c, 0x00, 0x00, 0x00, 0x01, 0x00, 0x00, 0x00,
  0x04, 0x00, 0x00, 0x00, 0x55, 0x00, 0x00, 0x00, 0x73, 0x65, 0x71, 0x75,
  0x65, 0x6e, 0x74, 0x69, 0x61, 0x6c, 0x5f, 0x31, 0x2f, 0x63, 0x6f, 0x6e,
  0x76, 0x32, 0x64, 0x5f, 0x35, 0x2f, 0x52, 0x65, 0x6c, 0x75, 0x3b, 0x73,
  0x65, 0x71, 0x75, 0x65, 0x6e, 0x74, 0x69, 0x61, 0x6c, 0x5f, 0x31, 0x2f,
  0x63, 0x6f, 0x6e, 0x76, 0x32, 0x64, 0x5f, 0x35, 0x2f, 0x42, 0x69, 0x61,
  0x73, 0x41, 0x64, 0x64, 0x3b, 0x73, 0x65, 0x71, 0x75, 0x65, 0x6e, 0x74,
  0x69, 0x61, 0x6c, 0x5f, 0x31, 0x2f, 0x63, 0x6f, 0x6e, 0x76, 0x32, 0x64,
  0x5f, 0x35, 0x2f, 0x43, 0x6f, 0x6e, 0x76, 0x32, 0x44, 0x00, 0x00, 0x00,
  0x04, 0x00, 0x00, 0x00, 0xff, 0xff, 0xff, 0xff, 0x0c, 0x00, 0x00, 0x00,
  0x01, 0x00, 0x00, 0x00, 0x04, 0x00, 0x00, 0x00, 0x20, 0xf3, 0xff, 0xff,
  0x3e, 0xfe, 0xff, 0xff, 0x00, 0x00, 0x00, 0x05, 0x01, 0x00, 0x00, 0x00,
  0x38, 0x00, 0x00, 0x00, 0x2c, 0x00, 0x00, 0x00, 0x14, 0x00, 0x00, 0x00,
  0x00, 0x00, 0x0e, 0x00, 0x14, 0x00, 0x00, 0x00, 0x10, 0x00, 0x0c, 0x00,
  0x08, 0x00, 0x04, 0x00, 0x0e, 0x00, 0x00, 0x00, 0x02, 0x00, 0x00, 0x00,
  0x01, 0x00, 0x00, 0x00, 0x02, 0x00, 0x00, 0x00, 0x01, 0x00, 0x00, 0x00,
  0x01, 0x00, 0x00, 0x00, 0x0b, 0x00, 0x00, 0x00, 0x01, 0x00, 0x00, 0x00,
  0x0a, 0x00, 0x00, 0x00, 0xf0, 0xf3, 0xff, 0xff, 0x14, 0x00, 0x00, 0x00,
  0x0c, 0x00, 0x00, 0x00, 0x20, 0x00, 0x00, 0x00, 0x5c, 0x00, 0x00, 0x00,
  0x44, 0x00, 0x00, 0x00, 0x04, 0x00, 0x00, 0x00, 0x01, 0x00, 0x00, 0x00,
  0x0c, 0x00, 0x00, 0x00, 0x01, 0x00, 0x00, 0x00, 0x04, 0x00, 0x00, 0x00,
  0x24, 0x00, 0x00, 0x00, 0x73, 0x65, 0x71, 0x75, 0x65, 0x6e, 0x74, 0x69,
  0x61, 0x6c, 0x5f, 0x31, 0x2f, 0x6d, 0x61, 0x78, 0x5f, 0x70, 0x6f, 0x6f,
  0x6c, 0x69, 0x6e, 0x67, 0x32, 0x64, 0x5f, 0x34, 0x2f, 0x4d, 0x61, 0x78,
  0x50, 0x6f, 0x6f, 0x6c, 0x00, 0x00, 0x00, 0x00, 0x04, 0x00, 0x00, 0x00,
  0xff, 0xff, 0xff, 0xff, 0x0c, 0x00, 0x00, 0x00, 0x01, 0x00, 0x00, 0x00,
  0x04, 0x00, 0x00, 0x00, 0xdc, 0xf3, 0xff, 0xff, 0x1a, 0xfe, 0xff, 0xff,
  0x00, 0x00, 0x00, 0x01, 0x30, 0x00, 0x00, 0x00, 0x24, 0x00, 0x00, 0x00,
  0x10, 0x00, 0x00, 0x00, 0x0c, 0x00, 0x10, 0x00, 0x00, 0x00, 0x04, 0x00,
  0x08, 0x00, 0x0f, 0x00, 0x0c, 0x00, 0x00, 0x00, 0x01, 0x00, 0x00, 0x00,
  0x01, 0x00, 0x00, 0x00, 0x00, 0x00, 0x00, 0x01, 0x01, 0x00, 0x00, 0x00,
  0x0a, 0x00, 0x00, 0x00, 0x03, 0x00, 0x00, 0x00, 0x09, 0x00, 0x00, 0x00,
  0x06, 0x00, 0x00, 0x00, 0x01, 0x00, 0x00, 0x00, 0xa8, 0xf4, 0xff, 0xff,
  0x14, 0x00, 0x00, 0x00, 0x0b, 0x00, 0x00, 0x00, 0x20, 0x00, 0x00, 0x00,
  0xa8, 0x00, 0x00, 0x00, 0x90, 0x00, 0x00, 0x00, 0x04, 0x00, 0x00, 0x00,
  0x01, 0x00, 0x00, 0x00, 0x18, 0x00, 0x00, 0x00, 0x01, 0x00, 0x00, 0x00,
  0x04, 0x00, 0x00, 0x00, 0x72, 0x00, 0x00, 0x00, 0x73, 0x65, 0x71, 0x75,
  0x65, 0x6e, 0x74, 0x69, 0x61, 0x6c, 0x5f, 0x31, 0x2f, 0x63, 0x6f, 0x6e,
  0x76, 0x32, 0x64, 0x5f, 0x34, 0x2f, 0x52, 0x65, 0x6c, 0x75, 0x3b, 0x73,
  0x65, 0x71, 0x75, 0x65, 0x6e, 0x74, 0x69, 0x61, 0x6c, 0x5f, 0x31, 0x2f,
  0x63, 0x6f, 0x6e, 0x76, 0x32, 0x64, 0x5f, 0x34, 0x2f, 0x42, 0x69, 0x61,
  0x73, 0x41, 0x64, 0x64, 0x3b, 0x73, 0x65, 0x71, 0x75, 0x65, 0x6e, 0x74,
  0x69, 0x61, 0x6c, 0x5f, 0x31, 0x2f, 0x63, 0x6f, 0x6e, 0x76, 0x32, 0x64,
  0x5f, 0x35, 0x2f, 0x43, 0x6f, 0x6e, 0x76, 0x32, 0x44, 0x3b, 0x73, 0x65,
  0x71, 0x75, 0x65, 0x6e, 0x74, 0x69, 0x61, 0x6c, 0x5f, 0x31, 0x2f, 0x63,
  0x6f, 0x6e, 0x76, 0x32, 0x64, 0x5f, 0x34, 0x2f, 0x43, 0x6f, 0x6e, 0x76,
  0x32, 0x44, 0x00, 0x00, 0x04, 0x00, 0x00, 0x00, 0xff, 0xff, 0xff, 0xff,
  0x18, 0x00, 0x00, 0x00, 0x01, 0x00, 0x00, 0x00, 0x04, 0x00, 0x00, 0x00,
  0xe0, 0xf5, 0xff, 0xff, 0x00, 0x00, 0x0e, 0x00, 0x1a, 0x00, 0x08, 0x00,
  0x0c, 0x00, 0x10, 0x00, 0x07, 0x00, 0x14, 0x00, 0x0e, 0x00, 0x00, 0x00,
  0x00, 0x00, 0x00, 0x05, 0x01, 0x00, 0x00, 0x00, 0x3c, 0x00, 0x00, 0x00,
  0x30, 0x00, 0x00, 0x00, 0x14, 0x00, 0x00, 0x00, 0x00, 0x00, 0x0e, 0x00,
  0x18, 0x00, 0x17, 0x00, 0x10, 0x00, 0x0c, 0x00, 0x08, 0x00, 0x04, 0x00,
  0x0e, 0x00, 0x00, 0x00, 0x02, 0x00, 0x00, 0x00, 0x01, 0x00, 0x00, 0x00,
  0x02, 0x00, 0x00, 0x00, 0x01, 0x00, 0x00, 0x00, 0x00, 0x00, 0x00, 0x01,
  0x01, 0x00, 0x00, 0x00, 0x09, 0x00, 0x00, 0x00, 0x01, 0x00, 0x00, 0x00,
  0x08, 0x00, 0x00, 0x00, 0x28, 0xff, 0xff, 0xff, 0x11, 0x00, 0x00, 0x00,
  0x00, 0x00, 0x00, 0x11, 0x01, 0x00, 0x00, 0x00, 0xd4, 0xf5, 0xff, 0xff,
  0x14, 0x00, 0x00, 0x00, 0x0a, 0x00, 0x00, 0x00, 0x20, 0x00, 0x00, 0x00,
  0x5c, 0x00, 0x00, 0x00, 0x44, 0x00, 0x00, 0x00, 0x04, 0x00, 0x00, 0x00,
  0x01, 0x00, 0x00, 0x00, 0x18, 0x00, 0x00, 0x00, 0x01, 0x00, 0x00, 0x00,
  0x04, 0x00, 0x00, 0x00, 0x24, 0x00, 0x00, 0x00, 0x73, 0x65, 0x71, 0x75,
  0x65, 0x6e, 0x74, 0x69, 0x61, 0x6c, 0x5f, 0x31, 0x2f, 0x6d, 0x61, 0x78,
  0x5f, 0x70, 0x6f, 0x6f, 0x6c, 0x69, 0x6e, 0x67, 0x32, 0x64, 0x5f, 0x33,
  0x2f, 0x4d, 0x61, 0x78, 0x50, 0x6f, 0x6f, 0x6c, 0x00, 0x00, 0x00, 0x00,
  0x04, 0x00, 0x00, 0x00, 0xff, 0xff, 0xff, 0xff, 0x18, 0x00, 0x00, 0x00,
  0x01, 0x00, 0x00, 0x00, 0x04, 0x00, 0x00, 0x00, 0xc0, 0xf6, 0xff, 0xff,
  0x00, 0x00, 0x0e, 0x00, 0x14, 0x00, 0x00, 0x00, 0x08, 0x00, 0x0c, 0x00,
  0x07, 0x00, 0x10, 0x00, 0x0e, 0x00, 0x00, 0x00, 0x00, 0x00, 0x00, 0x01,
  0x30, 0x00, 0x00, 0x00, 0x24, 0x00, 0x00, 0x00, 0x10, 0x00, 0x00, 0x00,
  0x0c, 0x00, 0x10, 0x00, 0x0e, 0x00, 0x04, 0x00, 0x08, 0x00, 0x0f, 0x00,
  0x0c, 0x00, 0x00, 0x00, 0x01, 0x00, 0x00, 0x00, 0x01, 0x00, 0x00, 0x00,
  0x00, 0x00, 0x01, 0x01, 0x01, 0x00, 0x00, 0x00, 0x08, 0x00, 0x00, 0x00,
  0x03, 0x00, 0x00, 0x00, 0x00, 0x00, 0x00, 0x00, 0x05, 0x00, 0x00, 0x00,
  0x01, 0x00, 0x00, 0x00, 0x0c, 0x00, 0x10, 0x00, 0x0b, 0x00, 0x00, 0x00,
  0x0c, 0x00, 0x04, 0x00, 0x0c, 0x00, 0x00, 0x00, 0x03, 0x00, 0x00, 0x00,
  0x00, 0x00, 0x00, 0x03, 0x01, 0x00, 0x00, 0x00, 0xb8, 0xf6, 0xff, 0xff,
  0x14, 0x00, 0x00, 0x00, 0x09, 0x00, 0x00, 0x00, 0x20, 0x00, 0x00, 0x00,
  0xa8, 0x00, 0x00, 0x00, 0x90, 0x00, 0x00, 0x00, 0x04, 0x00, 0x00, 0x00,
  0x01, 0x00, 0x00, 0x00, 0x30, 0x00, 0x00, 0x00, 0x01, 0x00, 0x00, 0x00,
  0x04, 0x00, 0x00, 0x00, 0x72, 0x00, 0x00, 0x00, 0x73, 0x65, 0x71, 0x75,
  0x65, 0x6e, 0x74, 0x69, 0x61, 0x6c, 0x5f, 0x31, 0x2f, 0x63, 0x6f, 0x6e,
  0x76, 0x32, 0x64, 0x5f, 0x33, 0x2f, 0x52, 0x65, 0x6c, 0x75, 0x3b, 0x73,
  0x65, 0x71, 0x75, 0x65, 0x6e, 0x74, 0x69, 0x61, 0x6c, 0x5f, 0x31, 0x2f,
  0x63, 0x6f, 0x6e, 0x76, 0x32, 0x64, 0x5f, 0x33, 0x2f, 0x42, 0x69, 0x61,
  0x73, 0x41, 0x64, 0x64, 0x3b, 0x73, 0x65, 0x71, 0x75, 0x65, 0x6e, 0x74,
  0x69, 0x61, 0x6c, 0x5f, 0x31, 0x2f, 0x63, 0x6f, 0x6e, 0x76, 0x32, 0x64,
  0x5f, 0x35, 0x2f, 0x43, 0x6f, 0x6e, 0x76, 0x32, 0x44, 0x3b, 0x73, 0x65,
  0x71, 0x75, 0x65, 0x6e, 0x74, 0x69, 0x61, 0x6c, 0x5f, 0x31, 0x2f, 0x63,
  0x6f, 0x6e, 0x76, 0x32, 0x64, 0x5f, 0x33, 0x2f, 0x43, 0x6f, 0x6e, 0x76,
  0x32, 0x44, 0x00, 0x00, 0x04, 0x00, 0x00, 0x00, 0xff, 0xff, 0xff, 0xff,
  0x30, 0x00, 0x00, 0x00, 0x01, 0x00, 0x00, 0x00, 0x04, 0x00, 0x00, 0x00,
  0xf0, 0xf6, 0xff, 0xff, 0xea, 0xf7, 0xff, 0xff, 0x04, 0x00, 0x00, 0x00,
  0xc0, 0x00, 0x00, 0x00, 0x20, 0x99, 0x9e, 0xbd, 0x10, 0x92, 0xee, 0xbe,
  0x28, 0x54, 0x83, 0xbe, 0xb8, 0xfa, 0x88, 0x3e, 0xe4, 0x31, 0xdf, 0x3e,
  0x80, 0x67, 0x86, 0x3c, 0x88, 0x19, 0x78, 0x3e, 0x28, 0x71, 0x16, 0x3e,
  0x6c, 0x9f, 0xe7, 0x3e, 0x3c, 0x10, 0xc8, 0xbe, 0x1c, 0x4e, 0x8b, 0xbe,
  0x94, 0xf6, 0xf7, 0xbe, 0x48, 0x62, 0x3e, 0xbe, 0xf8, 0xb7, 0x75, 0xbe,
  0x60, 0xcd, 0x6c, 0x3d, 0x18, 0xef, 0x50, 0x3e, 0xb0, 0x3c, 0x90, 0xbe,
  0x00, 0x25, 0x51, 0x3c, 0x90, 0x7f, 0xa6, 0xbe, 0x00, 0x93, 0xfe, 0x3b,
  0x20, 0x44, 0xad, 0x3e, 0xa0, 0x18, 0xc5, 0xbe, 0xa8, 0x0b, 0x64, 0xbe,
  0x38, 0xae, 0xcb, 0x3e, 0x78, 0x8a, 0x04, 0x3e, 0x80, 0xf1, 0x12, 0x3c,
  0x18, 0xf9, 0x3e, 0xbe, 0xd0, 0x3b, 0x94, 0x3e, 0x00, 0xaf, 0x31, 0x3c,
  0x74, 0xc4, 0xbf, 0xbe, 0xbc, 0xf0, 0xbb, 0xbe, 0x8c, 0x1b, 0x95, 0x3e,
  0xe4, 0x06, 0xcf, 0x3e, 0xa0, 0x1c, 0x00, 0xbd, 0x30, 0x30, 0xf4, 0xbe,
  0x20, 0xdd, 0x0d, 0x3e, 0x34, 0xce, 0xed, 0xbe, 0x20, 0x23, 0x82, 0xbd,
  0xc8, 0x19, 0x43, 0x3e, 0x90, 0x74, 0xeb, 0xbd, 0x90, 0x04, 0x99, 0xbe,
  0x68, 0xdc, 0x29, 0xbe, 0x88, 0xda, 0x81, 0x3e, 0xe4, 0xb5, 0xc8, 0x3e,
  0x5c, 0x6f, 0x8d, 0x3e, 0x00, 0x8a, 0x57, 0x3b, 0xe0, 0x69, 0xcb, 0x3e,
  0xd8, 0x3a, 0xfb, 0x3e, 0x92, 0xf8, 0xff, 0xff, 0x10, 0x00, 0x00, 0x00,
  0x08, 0x00, 0x00, 0x00, 0x1c, 0x00, 0x00, 0x00, 0x3c, 0x00, 0x00, 0x00,
  0x04, 0x00, 0x00, 0x00, 0x04, 0x00, 0x00, 0x00, 0x03, 0x00, 0x00, 0x00,
  0x01, 0x00, 0x00, 0x00, 0x04, 0x00, 0x00, 0x00, 0x1d, 0x00, 0x00, 0x00,
  0x73, 0x65, 0x71, 0x75, 0x65, 0x6e, 0x74, 0x69, 0x61, 0x6c, 0x5f, 0x31,
  0x2f, 0x63, 0x6f, 0x6e, 0x76, 0x32, 0x64, 0x5f, 0x35, 0x2f, 0x43, 0x6f,
  0x6e, 0x76, 0x32, 0x44, 0x31, 0x00, 0x00, 0x00, 0x0c, 0xf8, 0xff, 0xff,
  0x06, 0xf9, 0xff, 0xff, 0x04, 0x00, 0x00, 0x00, 0xc0, 0x00, 0x00, 0x00,
  0xc0, 0xb4, 0x48, 0x3d, 0x1c, 0xf5, 0x87, 0xbe, 0x80, 0x23, 0x45, 0xbe,
  0x98, 0xa1, 0xbb, 0xbe, 0x20, 0xfd, 0xde, 0xbe, 0x00, 0x5e, 0xc1, 0x3c,
  0x80, 0xc9, 0xc9, 0xbe, 0x40, 0x3d, 0xa0, 0xbc, 0xc8, 0xaf, 0xcf, 0x3e,
  0x40, 0x18, 0xba, 0x3c, 0x58, 0x2f, 0x81, 0xbe, 0xf8, 0x9b, 0xb8, 0x3e,
  0x38, 0x1f, 0x4e, 0x3e, 0x54, 0xd3, 0xc4, 0xbe, 0x10, 0xa0, 0xe6, 0x3e,
  0x70, 0x0a, 0x25, 0x3e, 0x8c, 0xa5, 0xec, 0x3e, 0x08, 0xea, 0x04, 0xbe,
  0xc0, 0x91, 0x91, 0xbe, 0xf0, 0xb7, 0x92, 0x3e, 0xd0, 0x8e, 0xbb, 0x3e,
  0xc0, 0x98, 0x7b, 0x3e, 0xa0, 0x6a, 0xc4, 0x3d, 0x80, 0x6e, 0x06, 0x3e,
  0x2c, 0xe6, 0xc9, 0x3e, 0x88, 0xb6, 0x9a, 0x3e, 0xf0, 0x88, 0xfd, 0xbe,
  0xb4, 0xd9, 0xd2, 0x3e, 0xf8, 0xf8, 0x99, 0xbe, 0xd8, 0x7e, 0x9d, 0xbe,
  0x10, 0xb1, 0x98, 0x3d, 0x10, 0x50, 0x20, 0xbe, 0x00, 0xe8, 0xcf, 0xbd,
  0xf0, 0x1e, 0x8d, 0x3d, 0x04, 0xdf, 0x8d, 0xbe, 0x70, 0x48, 0x9e, 0x3e,
  0xf0, 0x03, 0xa6, 0xbd, 0x98, 0x7f, 0xaa, 0xbe, 0x94, 0x68, 0xcb, 0x3e,
  0x80, 0x92, 0x79, 0x3e, 0xb0, 0xba, 0xef, 0xbd, 0x50, 0xb7, 0x1d, 0x3e,
  0xf0, 0xad, 0x03, 0x3e, 0xb4, 0x51, 0x83, 0x3e, 0xe0, 0x5c, 0x24, 0x3e,
  0x98, 0x3c, 0x3a, 0x3e, 0xb8, 0x88, 0xc9, 0xbe, 0x48, 0xfa, 0x96, 0xbe,
  0xae, 0xf9, 0xff, 0xff, 0x10, 0x00, 0x00, 0x00, 0x07, 0x00, 0x00, 0x00,
  0x1c, 0x00, 0x00, 0x00, 0x3c, 0x00, 0x00, 0x00, 0x04, 0x00, 0x00, 0x00,
  0x04, 0x00, 0x00, 0x00, 0x03, 0x00, 0x00, 0x00, 0x01, 0x00, 0x00, 0x00,
  0x04, 0x00, 0x00, 0x00, 0x1c, 0x00, 0x00, 0x00, 0x73, 0x65, 0x71, 0x75,
  0x65, 0x6e, 0x74, 0x69, 0x61, 0x6c, 0x5f, 0x31, 0x2f, 0x63, 0x6f, 0x6e,
  0x76, 0x32, 0x64, 0x5f, 0x34, 0x2f, 0x43, 0x6f, 0x6e, 0x76, 0x32, 0x44,
  0x00, 0x00, 0x00, 0x00, 0x28, 0xf9, 0xff, 0xff, 0x22, 0xfa, 0xff, 0xff,
  0x04, 0x00, 0x00, 0x00, 0xf0, 0x00, 0x00, 0x00, 0x71, 0x8f, 0x09, 0xbe,
  0x0a, 0xca, 0x8c, 0xbe, 0xa0, 0xf2, 0x20, 0x3d, 0x27, 0x96, 0x88, 0x3e,
  0x03, 0x4d, 0x0c, 0xbe, 0xf0, 0x33, 0x90, 0xbc, 0x80, 0xac, 0xfe, 0xbc,
  0x90, 0x33, 0xa5, 0xbd, 0x58, 0x9d, 0x32, 0x3e, 0x80, 0x45, 0x47, 0x3c,
  0x72, 0x03, 0x2c, 0x3e, 0xe2, 0x60, 0x26, 0x3e, 0x00, 0x8a, 0xf7, 0xba,
  0xb8, 0xcb, 0xef, 0x3d, 0x38, 0xac, 0x5d, 0xbe, 0xd8, 0xf5, 0x2e, 0xbd,
  0xb4, 0x8b, 0x1e, 0xbe, 0x50, 0x2e, 0xa9, 0xbc, 0xf8, 0xb4, 0x8c, 0xbe,
  0x20, 0xe0, 0x24, 0xbd, 0x48, 0x79, 0x36, 0x3e, 0x62, 0xdb, 0x0b, 0xbe,
  0x09, 0x30, 0x8e, 0x3e, 0x56, 0x27, 0x73, 0x3e, 0x08, 0x0e, 0x58, 0x3d,
  0x50, 0x23, 0x9d, 0xbc, 0xca, 0x9b, 0xb6, 0xbd, 0x83, 0xc1, 0x0a, 0xbe,
  0x82, 0xee, 0x0f, 0x3e, 0x9f, 0xaf, 0x88, 0x3e, 0x74, 0x2a, 0x15, 0x3e,
  0x01, 0x03, 0x7b, 0xbe, 0x6a, 0xaf, 0x7d, 0xbe, 0x29, 0xd2, 0x05, 0xbe,
  0x14, 0x23, 0x1d, 0x3e, 0xdd, 0x31, 0x88, 0x3e, 0xea, 0x7f, 0x63, 0x3e,
  0xb0, 0xc2, 0x4b, 0x3e, 0x5a, 0xf9, 0x17, 0xbe, 0x6a, 0xfa, 0x6d, 0xbe,
  0x40, 0x4e, 0x6d, 0xbe, 0xf8, 0xbe, 0x74, 0xbd, 0x1e, 0xfd, 0x41, 0x3e,
  0x42, 0x3e, 0x7b, 0x3e, 0xea, 0xed, 0x66, 0x3e, 0x80, 0x49, 0x82, 0x3c,
  0x0c, 0x9b, 0x46, 0x3e, 0x67, 0x61, 0x86, 0x3e, 0xc0, 0x5e, 0x4d, 0xbe,
  0x28, 0x6e, 0x0e, 0xbe, 0xe7, 0x88, 0x80, 0x3e, 0xfa, 0xbc, 0x23, 0x3e,
  0x20, 0xd0, 0x11, 0x3c, 0x6e, 0xbb, 0x1e, 0xbe, 0x12, 0xed, 0x93, 0xbd,
  0x66, 0x4c, 0x3f, 0xbe, 0x14, 0x60, 0x87, 0x3d, 0x46, 0x15, 0x43, 0xbe,
  0x66, 0xa7, 0x57, 0xbe, 0x34, 0xf4, 0x4b, 0x3e, 0xfa, 0xfa, 0xff, 0xff,
  0x10, 0x00, 0x00, 0x00, 0x06, 0x00, 0x00, 0x00, 0x1c, 0x00, 0x00, 0x00,
  0x3c, 0x00, 0x00, 0x00, 0x04, 0x00, 0x00, 0x00, 0x04, 0x00, 0x00, 0x00,
  0x03, 0x00, 0x00, 0x00, 0x05, 0x00, 0x00, 0x00, 0x01, 0x00, 0x00, 0x00,
  0x1c, 0x00, 0x00, 0x00, 0x73, 0x65, 0x71, 0x75, 0x65, 0x6e, 0x74, 0x69,
  0x61, 0x6c, 0x5f, 0x31, 0x2f, 0x63, 0x6f, 0x6e, 0x76, 0x32, 0x64, 0x5f,
  0x33, 0x2f, 0x43, 0x6f, 0x6e, 0x76, 0x32, 0x44, 0x00, 0x00, 0x00, 0x00,
  0x74, 0xfa, 0xff, 0xff, 0x6e, 0xfb, 0xff, 0xff, 0x04, 0x00, 0x00, 0x00,
  0x80, 0x00, 0x00, 0x00, 0x31, 0xda, 0x25, 0xbf, 0x40, 0x4c, 0x20, 0xbd,
  0x18, 0x8a, 0x94, 0xbd, 0xca, 0xc2, 0xdb, 0x3e, 0xad, 0x50, 0x11, 0xbf,
  0x7a, 0x63, 0x64, 0xbe, 0xb8, 0x3f, 0x9b, 0xbd, 0x40, 0xdc, 0xb4, 0x3c,
  0xbe, 0x8f, 0x26, 0xbf, 0x31, 0x4a, 0x1e, 0x3f, 0xb8, 0x93, 0xae, 0x3d,
  0x42, 0xeb, 0xae, 0x3e, 0x00, 0x80, 0x4b, 0xbe, 0x6f, 0xb0, 0x11, 0x3f,
  0x30, 0x77, 0x61, 0x3d, 0xf0, 0x43, 0xac, 0x3d, 0x5e, 0xdf, 0xac, 0x3e,
  0xa8, 0xdc, 0xf7, 0x3d, 0x59, 0xf8, 0x1a, 0xbf, 0x6f, 0x5c, 0xd6, 0xbe,
  0x6e, 0x92, 0x15, 0xbf, 0x3a, 0x9b, 0xd7, 0x3e, 0x78, 0xd2, 0xdc, 0xbe,
  0xd5, 0x40, 0xd7, 0xbe, 0xa6, 0x95, 0xee, 0xbe, 0x1a, 0x0d, 0xc2, 0x3e,
  0xc9, 0x3e, 0x08, 0x3f, 0x0e, 0x9e, 0xe0, 0xbe, 0xbd, 0x03, 0x34, 0xbf,
  0x00, 0x1b, 0x02, 0xbd, 0x4c, 0xf2, 0x2c, 0xbe, 0xda, 0xde, 0x19, 0xbf,
  0xd6, 0xfb, 0xff, 0xff, 0x10, 0x00, 0x00, 0x00, 0x05, 0x00, 0x00, 0x00,
  0x14, 0x00, 0x00, 0x00, 0x30, 0x00, 0x00, 0x00, 0x02, 0x00, 0x00, 0x00,
  0x04, 0x00, 0x00, 0x00, 0x08, 0x00, 0x00, 0x00, 0x1b, 0x00, 0x00, 0x00,
  0x73, 0x65, 0x71, 0x75, 0x65, 0x6e, 0x74, 0x69, 0x61, 0x6c, 0x5f, 0x31,
  0x2f, 0x64, 0x65, 0x6e, 0x73, 0x65, 0x5f, 0x33, 0x2f, 0x4d, 0x61, 0x74,
  0x4d, 0x75, 0x6c, 0x00, 0x44, 0xfb, 0xff, 0xff, 0x3e, 0xfc, 0xff, 0xff,
  0x04, 0x00, 0x00, 0x00, 0x00, 0x03, 0x00, 0x00, 0xee, 0xb5, 0x1b, 0x3e,
  0x08, 0xe9, 0x36, 0xbd, 0x78, 0x6d, 0x97, 0xbd, 0xc0, 0x86, 0xcd, 0xbe,
  0x57, 0x48, 0xcd, 0x3e, 0xef, 0x3d, 0xd7, 0x3e, 0xd0, 0x32, 0x81, 0x3d,
  0x80, 0x9f, 0x30, 0x3d, 0xa0, 0x45, 0x9e, 0x3c, 0xf0, 0x4c, 0x2b, 0xbd,
  0xe9, 0x83, 0xaf, 0x3e, 0xa4, 0x13, 0x58, 0xbe, 0x6c, 0xd8, 0x5e, 0xbe,
  0xd0, 0x54, 0xaf, 0xbe, 0xe0, 0x10, 0x6c, 0xbd, 0xc8, 0xc2, 0x4c, 0xbd,
  0xe6, 0x3b, 0x50, 0x3e, 0x84, 0x06, 0x89, 0x3d, 0xe5, 0x20, 0xbf, 0x3e,
  0xe0, 0x7b, 0x46, 0x3c, 0x47, 0x97, 0x81, 0x3e, 0x63, 0x13, 0xd9, 0xbe,
  0x52, 0x55, 0x3b, 0xbe, 0x3c, 0x1f, 0xb6, 0xbd, 0xd6, 0xaa, 0x14, 0x3e,
  0xa9, 0x46, 0x9d, 0x3e, 0x10, 0x43, 0x19, 0xbd, 0x86, 0x09, 0xc4, 0xbe,
  0x66, 0xdd, 0x26, 0x3e, 0xbc, 0xf9, 0x24, 0xbe, 0xb3, 0x52, 0x90, 0x3e,
  0x34, 0xa8, 0x8d, 0x3d, 0x16, 0x89, 0x21, 0x3e, 0xda, 0x64, 0x01, 0xbe,
  0x80, 0x45, 0xa7, 0x3b, 0xc0, 0xbc, 0x03, 0xbc, 0x86, 0x82, 0x77, 0x3e,
  0x40, 0x2b, 0xca, 0xbd, 0xb4, 0x44, 0x9d, 0x3d, 0xe0, 0x62, 0xbb, 0x3c,
  0x60, 0xd9, 0xd5, 0x3c, 0x54, 0x9c, 0x8e, 0xbd, 0x5e, 0x84, 0x8c, 0xbe,
  0xe5, 0x4a, 0x91, 0x3e, 0x56, 0x17, 0x1c, 0x3e, 0xf6, 0x34, 0x7b, 0xbe,
  0xc0, 0x56, 0xa8, 0xbe, 0x7d, 0xbf, 0x8f, 0xbe, 0x75, 0x26, 0xae, 0x3e,
  0x11, 0xe2, 0x83, 0x3e, 0x76, 0xb2, 0x3c, 0x3e, 0x5a, 0x89, 0x33, 0x3e,
  0x6f, 0x55, 0x8b, 0xbe, 0x4b, 0xf9, 0x52, 0xbe, 0x87, 0x44, 0xc5, 0x3e,
  0x33, 0x50, 0x59, 0xbe, 0x6f, 0xe9, 0xc2, 0x3e, 0x20, 0x82, 0x7e, 0xbc,
  0xa0, 0xfa, 0x7f, 0x3d, 0x7b, 0x0c, 0xa2, 0x3e, 0x50, 0x05, 0x44, 0xbd,
  0x8f, 0x1b, 0xaf, 0x3e, 0xa8, 0x8a, 0x3d, 0xbd, 0x9f, 0xb8, 0xb2, 0x3e,
  0xb7, 0xfb, 0xdc, 0xbe, 0x65, 0xef, 0xac, 0xbe, 0x00, 0x62, 0x92, 0xbd,
  0x2b, 0x57, 0xc4, 0x3e, 0x00, 0x14, 0x8a, 0x39, 0x1b, 0xc9, 0x7b, 0xbe,
  0x22, 0x8c, 0x12, 0x3e, 0x48, 0xba, 0x9a, 0xbe, 0x0a, 0x4f, 0x62, 0x3e,
  0x1a, 0x2e, 0x5c, 0xbe, 0x0a, 0x1a, 0x50, 0x3e, 0x1e, 0x07, 0x33, 0xbe,
  0x00, 0x96, 0xe0, 0xba, 0xe2, 0xd9, 0x89, 0xbe, 0x32, 0x9b, 0x1b, 0x3e,
  0x52, 0x75, 0x15, 0x3e, 0x69, 0x77, 0xd3, 0xbe, 0x9d, 0x36, 0xa9, 0x3e,
  0xca, 0xba, 0x99, 0xbe, 0x4f, 0x71, 0xd1, 0xbe, 0x94, 0xed, 0x85, 0xbe,
  0xd4, 0xe2, 0x8c, 0x3d, 0xd0, 0x61, 0x94, 0x3c, 0x89, 0x25, 0xbd, 0x3e,
  0xc8, 0x98, 0xbc, 0xbe, 0x79, 0x8b, 0x94, 0xbe, 0xe0, 0xa1, 0x70, 0xbe,
  0x0b, 0x8a, 0x7f, 0xbe, 0x6f, 0xa6, 0xbe, 0x3e, 0xf3, 0xed, 0x98, 0x3e,
  0x74, 0xc0, 0x89, 0x3d, 0x13, 0x48, 0xaa, 0x3e, 0xaf, 0xb7, 0x60, 0xbe,
  0x88, 0xe3, 0xad, 0xbe, 0xc4, 0xba, 0xd2, 0xbe, 0x43, 0xf5, 0x69, 0xbe,
  0x38, 0x4d, 0x75, 0xbd, 0x26, 0x41, 0x67, 0x3e, 0x10, 0xd8, 0xb3, 0x3c,
  0xe0, 0xba, 0x52, 0x3d, 0x8c, 0xeb, 0xcc, 0xbd, 0x5e, 0x78, 0x1a, 0xbe,
  0x4c, 0xdf, 0xcb, 0x3d, 0x6c, 0x66, 0xfc, 0x3d, 0x60, 0xbb, 0x0d, 0xbe,
  0xad, 0x07, 0x6c, 0xbe, 0x4f, 0x16, 0xbc, 0xbe, 0x0b, 0xf8, 0xd4, 0x3e,
  0x12, 0x85, 0xc5, 0xbe, 0xa0, 0xab, 0x36, 0x3c, 0x3c, 0x33, 0xf4, 0x3d,
  0xee, 0x52, 0x83, 0xbe, 0xfb, 0x34, 0xd8, 0xbe, 0xb5, 0xe8, 0xac, 0x3e,
  0x6b, 0xb8, 0x88, 0x3e, 0x14, 0x0d, 0xe6, 0xbd, 0x43, 0x95, 0x81, 0x3e,
  0x2a, 0x25, 0xac, 0xbe, 0x50, 0x8a, 0x7c, 0xbd, 0x4d, 0xea, 0xc7, 0x3e,
  0x00, 0x31, 0x87, 0xbb, 0x00, 0x09, 0x96, 0xbe, 0x9a, 0x20, 0x94, 0xbe,
  0x6f, 0xf1, 0xbb, 0xbe, 0x0b, 0xfd, 0x5a, 0xbe, 0x25, 0x4f, 0xb8, 0x3e,
  0xae, 0x7f, 0x20, 0x3e, 0xae, 0xda, 0x18, 0x3e, 0x4e, 0xd4, 0x90, 0xbe,
  0xc9, 0xa7, 0x80, 0x3e, 0x60, 0xf0, 0x30, 0x3d, 0x34, 0x14, 0xb9, 0x3d,
  0x7e, 0x71, 0xcd, 0xbe, 0xf8, 0x3d, 0x3c, 0xbd, 0x98, 0xbc, 0xe8, 0xbd,
  0xe0, 0x44, 0x16, 0xbe, 0x72, 0x51, 0xb2, 0xbe, 0x1b, 0xff, 0x3c, 0xbe,
  0x0b, 0x49, 0xab, 0xbe, 0xac, 0x19, 0xc5, 0xbe, 0xc1, 0x88, 0x4d, 0xbe,
  0x7d, 0x2d, 0xad, 0x3e, 0x23, 0x48, 0xb8, 0xbe, 0x84, 0x76, 0x6d, 0xbe,
  0xd4, 0xc7, 0x8a, 0x3d, 0x2c, 0xc5, 0x87, 0x3d, 0xff, 0x4f, 0xcc, 0x3e,
  0xb4, 0x42, 0x65, 0xbe, 0x5c, 0x2e, 0xeb, 0xbd, 0x6a, 0x75, 0x1e, 0x3e,
  0x22, 0x04, 0x9f, 0xbe, 0xee, 0x53, 0xbc, 0xbe, 0x96, 0xd2, 0x0f, 0xbe,
  0xe2, 0x38, 0x83, 0xbe, 0xa0, 0x74, 0xaf, 0xbc, 0xee, 0x68, 0x7b, 0x3e,
  0x1c, 0x4b, 0xbe, 0x3d, 0x6f, 0x29, 0xcd, 0x3e, 0x46, 0x91, 0x68, 0x3e,
  0x46, 0x8f, 0x7b, 0xbe, 0x30, 0xbf, 0x9e, 0xbe, 0x92, 0xb9, 0x1d, 0x3e,
  0xc4, 0x8b, 0xf3, 0x3d, 0x30, 0x6e, 0xdf, 0xbc, 0x0c, 0xee, 0x26, 0xbe,
  0xec, 0x0f, 0xae, 0xbd, 0xf7, 0x47, 0xc1, 0x3e, 0x44, 0x54, 0xa7, 0x3d,
  0xd5, 0x77, 0x78, 0xbe, 0x14, 0x1a, 0xc1, 0x3d, 0xdd, 0xd6, 0x81, 0x3e,
  0xd8, 0xc7, 0x06, 0x3d, 0x42, 0xf5, 0x6a, 0x3e, 0xd0, 0x4b, 0xf1, 0xbd,
  0xca, 0x43, 0x0c, 0x3e, 0xda, 0x82, 0x7b, 0xbe, 0xa0, 0x84, 0x74, 0x3d,
  0x1b, 0xdb, 0x64, 0xbe, 0xd4, 0x6c, 0xc3, 0xbd, 0x2a, 0xd5, 0x28, 0xbe,
  0x1f, 0xe8, 0x8f, 0x3e, 0xb0, 0x97, 0x6e, 0xbd, 0xb2, 0x85, 0x47, 0x3e,
  0x3a, 0x8f, 0xc1, 0xbe, 0xf8, 0xca, 0xad, 0xbd, 0xc8, 0xe1, 0xeb, 0xbd,
  0xc0, 0xd3, 0xec, 0xbb, 0xea, 0xfc, 0xac, 0xbe, 0x26, 0xff, 0xff, 0xff,
  0x10, 0x00, 0x00, 0x00, 0x04, 0x00, 0x00, 0x00, 0x14, 0x00, 0x00, 0x00,
  0x30, 0x00, 0x00, 0x00, 0x02, 0x00, 0x00, 0x00, 0x08, 0x00, 0x00, 0x00,
  0x18, 0x00, 0x00, 0x00, 0x1b, 0x00, 0x00, 0x00, 0x73, 0x65, 0x71, 0x75,
  0x65, 0x6e, 0x74, 0x69, 0x61, 0x6c, 0x5f, 0x31, 0x2f, 0x64, 0x65, 0x6e,
  0x73, 0x65, 0x5f, 0x32, 0x2f, 0x4d, 0x61, 0x74, 0x4d, 0x75, 0x6c, 0x00,
  0x94, 0xfe, 0xff, 0xff, 0x8e, 0xff, 0xff, 0xff, 0x04, 0x00, 0x00, 0x00,
  0x08, 0x00, 0x00, 0x00, 0xff, 0xff, 0xff, 0xff, 0x18, 0x00, 0x00, 0x00,
  0x00, 0x00, 0x0e, 0x00, 0x18, 0x00, 0x08, 0x00, 0x07, 0x00, 0x0c, 0x00,
  0x10, 0x00, 0x14, 0x00, 0x0e, 0x00, 0x00, 0x00, 0x00, 0x00, 0x00, 0x02,
  0x10, 0x00, 0x00, 0x00, 0x03, 0x00, 0x00, 0x00, 0x10, 0x00, 0x00, 0x00,
  0x34, 0x00, 0x00, 0x00, 0x01, 0x00, 0x00, 0x00, 0x02, 0x00, 0x00, 0x00,
  0x1c, 0x00, 0x00, 0x00, 0x73, 0x65, 0x71, 0x75, 0x65, 0x6e, 0x74, 0x69,
  0x61, 0x6c, 0x5f, 0x31, 0x2f, 0x66, 0x6c, 0x61, 0x74, 0x74, 0x65, 0x6e,
  0x5f, 0x31, 0x2f, 0x43, 0x6f, 0x6e, 0x73, 0x74, 0x00, 0x00, 0x00, 0x00,
  0x04, 0x00, 0x06, 0x00, 0x04, 0x00, 0x00, 0x00, 0x00, 0x00, 0x06, 0x00,
  0x08, 0x00, 0x04, 0x00, 0x06, 0x00, 0x00, 0x00, 0x04, 0x00, 0x00, 0x00,
  0x10, 0x00, 0x00, 0x00, 0x00, 0x00, 0x00, 0x00, 0x00, 0x00, 0x00, 0x00,
  0x00, 0x00, 0x00, 0x00, 0x00, 0x00, 0x00, 0x00, 0x00, 0x00, 0x0e, 0x00,
  0x14, 0x00, 0x04, 0x00, 0x00, 0x00, 0x08, 0x00, 0x0c, 0x00, 0x10, 0x00,
  0x0e, 0x00, 0x00, 0x00, 0x10, 0x00, 0x00, 0x00, 0x02, 0x00, 0x00, 0x00,
  0x10, 0x00, 0x00, 0x00, 0x30, 0x00, 0x00, 0x00, 0x01, 0x00, 0x00, 0x00,
  0x04, 0x00, 0x00, 0x00, 0x1c, 0x00, 0x00, 0x00, 0x73, 0x65, 0x71, 0x75,
  0x65, 0x6e, 0x74, 0x69, 0x61, 0x6c, 0x5f, 0x31, 0x2f, 0x63, 0x6f, 0x6e,
  0x76, 0x32, 0x64, 0x5f, 0x35, 0x2f, 0x43, 0x6f, 0x6e, 0x76, 0x32, 0x44,
  0x00, 0x00, 0x00, 0x00, 0x7c, 0xff, 0xff, 0xff, 0x14, 0x00, 0x18, 0x00,
  0x04, 0x00, 0x00, 0x00, 0x08, 0x00, 0x0c, 0x00, 0x10, 0x00, 0x00, 0x00,
  0x00, 0x00, 0x14, 0x00, 0x14, 0x00, 0x00, 0x00, 0x14, 0x00, 0x00, 0x00,
  0x01, 0x00, 0x00, 0x00, 0x20, 0x00, 0x00, 0x00, 0x58, 0x00, 0x00, 0x00,
  0x40, 0x00, 0x00, 0x00, 0x04, 0x00, 0x00, 0x00, 0x01, 0x00, 0x00, 0x00,
  0x32, 0x00, 0x00, 0x00, 0x05, 0x00, 0x00, 0x00, 0x01, 0x00, 0x00, 0x00,
  0x20, 0x00, 0x00, 0x00, 0x73, 0x65, 0x72, 0x76, 0x69, 0x6e, 0x67, 0x5f,
  0x64, 0x65, 0x66, 0x61, 0x75, 0x6c, 0x74, 0x5f, 0x63, 0x6f, 0x6e, 0x76,
  0x32, 0x64, 0x5f, 0x33, 0x5f, 0x69, 0x6e, 0x70, 0x75, 0x74, 0x3a, 0x30,
  0x00, 0x00, 0x00, 0x00, 0x04, 0x00, 0x00, 0x00, 0xff, 0xff, 0xff, 0xff,
  0x32, 0x00, 0x00, 0x00, 0x05, 0x00, 0x00, 0x00, 0x01, 0x00, 0x00, 0x00,
  0xfc, 0xff, 0xff, 0xff, 0x04, 0x00, 0x04, 0x00, 0x04, 0x00, 0x00, 0x00
};
unsigned int model_tflite_len = 4992;
