unsigned char model_tflite[] = {
  0x1c, 0x00, 0x00, 0x00, 0x54, 0x46, 0x4c, 0x33, 0x14, 0x00, 0x20, 0x00,
  0x1c, 0x00, 0x18, 0x00, 0x14, 0x00, 0x10, 0x00, 0x0c, 0x00, 0x00, 0x00,
  0x08, 0x00, 0x04, 0x00, 0x14, 0x00, 0x00, 0x00, 0x1c, 0x00, 0x00, 0x00,
  0x90, 0x00, 0x00, 0x00, 0xe8, 0x00, 0x00, 0x00, 0xd4, 0x08, 0x00, 0x00,
  0xe4, 0x08, 0x00, 0x00, 0xa8, 0x16, 0x00, 0x00, 0x03, 0x00, 0x00, 0x00,
  0x01, 0x00, 0x00, 0x00, 0x04, 0x00, 0x00, 0x00, 0x1a, 0xf6, 0xff, 0xff,
  0x0c, 0x00, 0x00, 0x00, 0x1c, 0x00, 0x00, 0x00, 0x3c, 0x00, 0x00, 0x00,
  0x0f, 0x00, 0x00, 0x00, 0x73, 0x65, 0x72, 0x76, 0x69, 0x6e, 0x67, 0x5f,
  0x64, 0x65, 0x66, 0x61, 0x75, 0x6c, 0x74, 0x00, 0x01, 0x00, 0x00, 0x00,
  0x04, 0x00, 0x00, 0x00, 0x8c, 0xff, 0xff, 0xff, 0x15, 0x00, 0x00, 0x00,
  0x04, 0x00, 0x00, 0x00, 0x08, 0x00, 0x00, 0x00, 0x64, 0x65, 0x6e, 0x73,
  0x65, 0x5f, 0x38, 0x30, 0x00, 0x00, 0x00, 0x00, 0x01, 0x00, 0x00, 0x00,
  0x04, 0x00, 0x00, 0x00, 0xfe, 0xf6, 0xff, 0xff, 0x04, 0x00, 0x00, 0x00,
  0x10, 0x00, 0x00, 0x00, 0x63, 0x6f, 0x6e, 0x76, 0x32, 0x64, 0x5f, 0x31,
  0x31, 0x30, 0x5f, 0x69, 0x6e, 0x70, 0x75, 0x74, 0x00, 0x00, 0x00, 0x00,
  0x02, 0x00, 0x00, 0x00, 0x34, 0x00, 0x00, 0x00, 0x04, 0x00, 0x00, 0x00,
  0xdc, 0xff, 0xff, 0xff, 0x18, 0x00, 0x00, 0x00, 0x04, 0x00, 0x00, 0x00,
  0x13, 0x00, 0x00, 0x00, 0x43, 0x4f, 0x4e, 0x56, 0x45, 0x52, 0x53, 0x49,
  0x4f, 0x4e, 0x5f, 0x4d, 0x45, 0x54, 0x41, 0x44, 0x41, 0x54, 0x41, 0x00,
  0x08, 0x00, 0x0c, 0x00, 0x08, 0x00, 0x04, 0x00, 0x08, 0x00, 0x00, 0x00,
  0x17, 0x00, 0x00, 0x00, 0x04, 0x00, 0x00, 0x00, 0x13, 0x00, 0x00, 0x00,
  0x6d, 0x69, 0x6e, 0x5f, 0x72, 0x75, 0x6e, 0x74, 0x69, 0x6d, 0x65, 0x5f,
  0x76, 0x65, 0x72, 0x73, 0x69, 0x6f, 0x6e, 0x00, 0x19, 0x00, 0x00, 0x00,
  0xe8, 0x07, 0x00, 0x00, 0xe0, 0x07, 0x00, 0x00, 0xc0, 0x07, 0x00, 0x00,
  0xa0, 0x07, 0x00, 0x00, 0x80, 0x07, 0x00, 0x00, 0x80, 0x06, 0x00, 0x00,
  0xb0, 0x05, 0x00, 0x00, 0xe0, 0x04, 0x00, 0x00, 0xc0, 0x04, 0x00, 0x00,
  0x90, 0x04, 0x00, 0x00, 0x78, 0x04, 0x00, 0x00, 0x68, 0x01, 0x00, 0x00,
  0xd8, 0x00, 0x00, 0x00, 0xd0, 0x00, 0x00, 0x00, 0xc8, 0x00, 0x00, 0x00,
  0xc0, 0x00, 0x00, 0x00, 0xb8, 0x00, 0x00, 0x00, 0xb0, 0x00, 0x00, 0x00,
  0xa8, 0x00, 0x00, 0x00, 0xa0, 0x00, 0x00, 0x00, 0x98, 0x00, 0x00, 0x00,
  0x90, 0x00, 0x00, 0x00, 0x88, 0x00, 0x00, 0x00, 0x68, 0x00, 0x00, 0x00,
  0x04, 0x00, 0x00, 0x00, 0xe2, 0xf7, 0xff, 0xff, 0x04, 0x00, 0x00, 0x00,
  0x54, 0x00, 0x00, 0x00, 0x0c, 0x00, 0x00, 0x00, 0x08, 0x00, 0x0e, 0x00,
  0x08, 0x00, 0x04, 0x00, 0x08, 0x00, 0x00, 0x00, 0x10, 0x00, 0x00, 0x00,
  0x24, 0x00, 0x00, 0x00, 0x00, 0x00, 0x06, 0x00, 0x08, 0x00, 0x04, 0x00,
  0x06, 0x00, 0x00, 0x00, 0x04, 0x00, 0x00, 0x00, 0x00, 0x00, 0x00, 0x00,
  0x00, 0x00, 0x0a, 0x00, 0x10, 0x00, 0x0c, 0x00, 0x08, 0x00, 0x04, 0x00,
  0x0a, 0x00, 0x00, 0x00, 0x02, 0x00, 0x00, 0x00, 0x02, 0x00, 0x00, 0x00,
  0x04, 0x00, 0x00, 0x00, 0x06, 0x00, 0x00, 0x00, 0x32, 0x2e, 0x31, 0x32,
  0x2e, 0x30, 0x00, 0x00, 0x42, 0xf8, 0xff, 0xff, 0x04, 0x00, 0x00, 0x00,
  0x10, 0x00, 0x00, 0x00, 0x31, 0x2e, 0x35, 0x2e, 0x30, 0x00, 0x00, 0x00,
  0x00, 0x00, 0x00, 0x00, 0x00, 0x00, 0x00, 0x00, 0x5c, 0xeb, 0xff, 0xff,
  0x60, 0xeb, 0xff, 0xff, 0x64, 0xeb, 0xff, 0xff, 0x68, 0xeb, 0xff, 0xff,
  0x6c, 0xeb, 0xff, 0xff, 0x70, 0xeb, 0xff, 0xff, 0x74, 0xeb, 0xff, 0xff,
  0x78, 0xeb, 0xff, 0xff, 0x7c, 0xeb, 0xff, 0xff, 0x80, 0xeb, 0xff, 0xff,
  0x86, 0xf8, 0xff, 0xff, 0x04, 0x00, 0x00, 0x00, 0x80, 0x00, 0x00, 0x00,
  0x4b, 0x7d, 0x6f, 0x3f, 0x15, 0x60, 0x37, 0x3f, 0x12, 0x79, 0xb8, 0x3e,
  0xc3, 0x3d, 0x97, 0xbf, 0xbb, 0xee, 0x15, 0xbe, 0x5b, 0x79, 0x6a, 0xbf,
  0xee, 0x1f, 0x81, 0xbf, 0x47, 0x8a, 0x15, 0xbf, 0xfa, 0x94, 0x0a, 0xc0,
  0x66, 0x9f, 0x0f, 0xbf, 0x78, 0xba, 0x68, 0x3f, 0xc6, 0xa3, 0xba, 0x3f,
  0x70, 0xf5, 0x9f, 0xbf, 0xee, 0x35, 0x83, 0x3f, 0xc2, 0x79, 0x99, 0xbe,
  0xfc, 0xe6, 0x85, 0xbf, 0xaa, 0xfe, 0xeb, 0x3f, 0xd9, 0x34, 0xa1, 0xbe,
  0x8d, 0x5d, 0x3d, 0x3f, 0x84, 0xf0, 0x10, 0xbf, 0x58, 0x11, 0x8a, 0xbf,
  0x5b, 0x75, 0x28, 0x3e, 0x66, 0xa2, 0x7f, 0xbe, 0x69, 0x31, 0xed, 0x3e,
  0x46, 0xc6, 0x47, 0x3f, 0xa3, 0x14, 0xd2, 0xbe, 0x9f, 0x76, 0x0a, 0xbf,
  0x6c, 0x54, 0x40, 0xbf, 0x48, 0xca, 0x1b, 0x3f, 0x32, 0xa9, 0xaa, 0xbf,
  0xc4, 0xc3, 0x23, 0x3f, 0xb6, 0x34, 0xfd, 0x3e, 0x12, 0xf9, 0xff, 0xff,
  0x04, 0x00, 0x00, 0x00, 0x00, 0x03, 0x00, 0x00, 0x4c, 0x16, 0x33, 0x3f,
  0x29, 0x66, 0xb2, 0xbc, 0xdb, 0xda, 0x57, 0xbf, 0xaf, 0x32, 0x5c, 0xbf,
  0x9e, 0xef, 0x2e, 0x3e, 0xe8, 0x2d, 0xad, 0xbd, 0x05, 0xa0, 0xc2, 0xbe,
  0x08, 0x76, 0x5d, 0xbf, 0x67, 0x29, 0x39, 0x3e, 0x73, 0x60, 0xc0, 0x3d,
  0x88, 0x7c, 0xdb, 0xbe, 0xc7, 0xcb, 0xca, 0xbf, 0x92, 0x29, 0xfe, 0x3e,
  0x5f, 0x0b, 0x63, 0x3e, 0xa1, 0xbc, 0xc5, 0xbd, 0xce, 0x46, 0x02, 0xbf,
  0x12, 0xd1, 0x86, 0x3d, 0xfd, 0xde, 0x8e, 0xbd, 0x51, 0x64, 0x62, 0xbd,
  0x9c, 0xcb, 0x92, 0xbf, 0xc5, 0xa2, 0x97, 0x3e, 0x32, 0x4c, 0x68, 0xbd,
  0x6b, 0x43, 0x27, 0x3d, 0x4e, 0x3d, 0x07, 0x3e, 0xa6, 0x7c, 0x3e, 0x3f,
  0xde, 0xa5, 0x6a, 0xbf, 0xe7, 0xfa, 0xa0, 0xbd, 0x08, 0xfb, 0x55, 0x3e,
  0x6b, 0x44, 0x8c, 0xbd, 0x57, 0x82, 0xae, 0x3e, 0xd0, 0xee, 0xb2, 0x3e,
  0xfc, 0x38, 0x08, 0x3f, 0x48, 0xd3, 0xd3, 0x3d, 0x82, 0x93, 0xc9, 0xbf,
  0x91, 0xbe, 0x84, 0x3e, 0xc9, 0x2c, 0x96, 0x3f, 0x59, 0x24, 0x48, 0x3d,
  0x6e, 0xf2, 0xb9, 0xbe, 0x95, 0x87, 0x97, 0xbd, 0x96, 0x45, 0x80, 0x3e,
  0x27, 0x16, 0x73, 0x3e, 0xea, 0xa4, 0xab, 0xbe, 0x14, 0xe9, 0x79, 0x3e,
  0x99, 0x8a, 0xf9, 0x3e, 0xfd, 0x63, 0x31, 0x3d, 0x43, 0x41, 0xd5, 0x3e,
  0x0a, 0x29, 0xdb, 0xbd, 0x6b, 0x4f, 0x12, 0xbe, 0xcf, 0x33, 0x53, 0x3e,
  0xa7, 0xd9, 0x63, 0x3f, 0x41, 0x1c, 0xc4, 0x3e, 0x24, 0xdf, 0xff, 0x3c,
  0x67, 0x22, 0xa8, 0x3e, 0xe5, 0xb6, 0xa2, 0x3e, 0xa0, 0x57, 0x65, 0xbe,
  0x3f, 0x07, 0xd6, 0x3d, 0xeb, 0x9c, 0x24, 0xbe, 0x66, 0x52, 0xbd, 0xbd,
  0x87, 0xe6, 0x46, 0xbf, 0x17, 0xa4, 0xac, 0x3b, 0x19, 0x31, 0x13, 0xbf,
  0xd1, 0x05, 0xe2, 0x3e, 0x38, 0x42, 0x25, 0xbf, 0x7a, 0x92, 0xbc, 0x3e,
  0xd6, 0x29, 0x29, 0x3d, 0x12, 0x42, 0xf7, 0x3d, 0x0c, 0x82, 0x23, 0x3f,
  0x93, 0x72, 0xc2, 0xbd, 0x3e, 0xd0, 0x20, 0xbd, 0x59, 0x5d, 0x6c, 0x3f,
  0x99, 0x57, 0xaf, 0xbe, 0xd5, 0x2b, 0x07, 0x3e, 0x22, 0x6b, 0x1f, 0xbf,
  0x72, 0x64, 0x67, 0x3f, 0x71, 0x29, 0x30, 0xbe, 0x3d, 0x37, 0x2a, 0x3f,
  0x2e, 0xcb, 0x22, 0xbf, 0x2c, 0x5a, 0x08, 0x3f, 0x18, 0xed, 0x40, 0xbf,
  0x7a, 0xfa, 0x32, 0x3f, 0x22, 0x0d, 0xba, 0xbe, 0x51, 0x55, 0x8b, 0x3e,
  0x9b, 0xcd, 0x6c, 0xbf, 0x14, 0x38, 0xce, 0x3e, 0x9a, 0x02, 0x43, 0xbe,
  0xdf, 0x40, 0xe2, 0x3e, 0xd7, 0xa7, 0x04, 0xbe, 0xb1, 0x57, 0xe7, 0x3e,
  0x5a, 0x54, 0x07, 0x3f, 0x0c, 0xf1, 0x44, 0x3f, 0xc6, 0x1f, 0xaf, 0xbb,
  0x45, 0x41, 0x78, 0x3e, 0xc6, 0xb5, 0x18, 0x3e, 0xb4, 0x5a, 0x28, 0x3f,
  0x85, 0xcd, 0xb2, 0x3e, 0x67, 0xd0, 0x3a, 0xbe, 0x1b, 0x59, 0x06, 0x3f,
  0xf4, 0x36, 0x86, 0xbf, 0x15, 0xc2, 0x9f, 0x3d, 0x02, 0xa7, 0x7c, 0xbe,
  0x7d, 0xa7, 0xaf, 0x3e, 0x9b, 0x9e, 0x1c, 0xbf, 0x31, 0x2a, 0x41, 0x3e,
  0xb5, 0x14, 0x20, 0xbf, 0x48, 0xc8, 0xa7, 0x3d, 0x16, 0xca, 0x9f, 0xbf,
  0x91, 0x2b, 0x26, 0xbe, 0x4d, 0xee, 0x89, 0xbd, 0x52, 0x5b, 0x19, 0x3e,
  0xfc, 0xd9, 0x80, 0xbf, 0xb6, 0xac, 0x0e, 0x3e, 0x2e, 0x8e, 0x12, 0xbe,
  0x28, 0x3a, 0x46, 0xbe, 0xcc, 0xfe, 0x70, 0xbe, 0x82, 0xf6, 0x21, 0xbe,
  0xba, 0x72, 0x0f, 0xbe, 0xf1, 0x0f, 0xb6, 0x3e, 0x7d, 0x69, 0xb2, 0x3e,
  0x2f, 0x0b, 0xa8, 0xbd, 0xb8, 0x79, 0x58, 0xbe, 0xf6, 0x00, 0x4d, 0x3d,
  0x48, 0x5d, 0x37, 0x3f, 0xe3, 0xf2, 0x34, 0x3e, 0xb3, 0xab, 0x29, 0x3f,
  0x43, 0xef, 0x23, 0xbe, 0xca, 0x62, 0x35, 0x3f, 0xf1, 0x7d, 0xa4, 0x3e,
  0xf3, 0x9a, 0xc3, 0xbe, 0x15, 0x35, 0x03, 0x3f, 0x90, 0xc0, 0x62, 0x3f,
  0xf6, 0x67, 0xd2, 0xbc, 0x7b, 0x62, 0x74, 0x3e, 0x16, 0x9a, 0xd9, 0x3e,
  0x9f, 0xa8, 0x51, 0x3e, 0x46, 0xd4, 0xe8, 0x3e, 0x4c, 0x22, 0x8a, 0x3e,
  0xc2, 0x88, 0xd4, 0xbe, 0xdd, 0xf3, 0xaa, 0x3d, 0xf5, 0xf7, 0x2e, 0xbf,
  0x41, 0x6e, 0x81, 0x3e, 0x8f, 0x83, 0x14, 0xbf, 0x50, 0x76, 0xaa, 0x3e,
  0x15, 0xcc, 0x03, 0xbf, 0x50, 0x65, 0xbb, 0xbe, 0x40, 0xd4, 0x82, 0xbe,
  0x8e, 0xe6, 0x94, 0x3d, 0xdc, 0x17, 0x6f, 0x3d, 0x6a, 0x10, 0x90, 0x3e,
  0xa9, 0xe9, 0x32, 0xbd, 0x08, 0x76, 0xf8, 0x3e, 0x52, 0x3d, 0xd6, 0x3d,
  0x10, 0xb5, 0x38, 0xbe, 0xd8, 0xf2, 0xea, 0x3e, 0x83, 0x56, 0xa8, 0x3d,
  0xe6, 0x50, 0x89, 0x3d, 0xdb, 0xa5, 0xca, 0xbd, 0x63, 0xfb, 0x95, 0x3e,
  0xfe, 0xc2, 0xb8, 0x3e, 0x2c, 0x93, 0x28, 0x3d, 0xb1, 0xbf, 0xea, 0xbe,
  0xb0, 0x7e, 0x41, 0x3e, 0x7a, 0x85, 0x1e, 0xbd, 0xa3, 0xe1, 0x51, 0xbe,
  0x05, 0xd0, 0xa8, 0xbe, 0xdd, 0xbc, 0x6b, 0xbe, 0xa0, 0xb8, 0x18, 0x3f,
  0x50, 0xc3, 0x09, 0xbe, 0x37, 0x8c, 0x75, 0xbf, 0x3a, 0x94, 0xc3, 0x3e,
  0x09, 0xc2, 0x6b, 0x3e, 0xc6, 0x17, 0x0b, 0x3f, 0x61, 0x66, 0xdc, 0xbe,
  0x4b, 0x87, 0xfe, 0x3c, 0x32, 0x1e, 0xa3, 0x3b, 0x2c, 0xcf, 0x70, 0xbe,
  0x39, 0xcc, 0x44, 0xbe, 0x4e, 0xfc, 0x0e, 0x3f, 0x26, 0x26, 0xe7, 0xbd,
  0x05, 0xd3, 0x76, 0x3e, 0xbc, 0x28, 0x62, 0xbf, 0x43, 0x49, 0x2c, 0x3d,
  0xf2, 0x63, 0x28, 0xbf, 0x44, 0xd5, 0x6a, 0xbe, 0x50, 0x32, 0x11, 0xbf,
  0xa3, 0xa0, 0xea, 0x3e, 0xa5, 0x17, 0x4d, 0xbf, 0x90, 0xb6, 0x39, 0x3e,
  0xf9, 0x41, 0x99, 0xbe, 0x1e, 0x76, 0xfa, 0x3e, 0x56, 0x94, 0x9e, 0xbe,
  0xe4, 0xed, 0x0a, 0x3e, 0xa6, 0xda, 0x22, 0xbf, 0x1e, 0xfc, 0xff, 0xff,
  0x04, 0x00, 0x00, 0x00, 0x08, 0x00, 0x00, 0x00, 0xff, 0xff, 0xff, 0xff,
  0x18, 0x00, 0x00, 0x00, 0x32, 0xfc, 0xff, 0xff, 0x04, 0x00, 0x00, 0x00,
  0x20, 0x00, 0x00, 0x00, 0xba, 0x2f, 0x03, 0x3f, 0x80, 0x06, 0xdb, 0xbd,
  0xe1, 0x0a, 0xb0, 0x3e, 0x27, 0xf1, 0x87, 0x3e, 0x8d, 0x20, 0x15, 0x3f,
  0x3c, 0xfb, 0x31, 0x3e, 0x4b, 0x74, 0xd4, 0x3e, 0x5e, 0xaa, 0x93, 0x3e,
  0x5e, 0xfc, 0xff, 0xff, 0x04, 0x00, 0x00, 0x00, 0x10, 0x00, 0x00, 0x00,
  0xb9, 0xa7, 0x53, 0xbe, 0x5c, 0x16, 0x6c, 0x3e, 0x62, 0xe7, 0xa5, 0x3e,
  0xb8, 0xb2, 0xc6, 0xbd, 0x7a, 0xfc, 0xff, 0xff, 0x04, 0x00, 0x00, 0x00,
  0xc0, 0x00, 0x00, 0x00, 0x65, 0x27, 0x9c, 0xbd, 0x39, 0xa4, 0x06, 0x3f,
  0x5c, 0x42, 0xd3, 0xbc, 0x09, 0x33, 0xf0, 0x3c, 0xbd, 0x6c, 0xee, 0x3e,
  0x9e, 0xd6, 0x17, 0x3f, 0x1b, 0x24, 0xc9, 0xbe, 0xb9, 0x9b, 0xbb, 0xbe,
  0x99, 0x84, 0x8a, 0x3e, 0xad, 0xf3, 0x06, 0x3d, 0x51, 0xf8, 0xe8, 0xbe,
  0xd0, 0x2a, 0x33, 0x3f, 0x68, 0x23, 0xa9, 0xbc, 0x7f, 0xa4, 0xb5, 0x3d,
  0xa7, 0x04, 0x00, 0x3e, 0xec, 0x2a, 0xaa, 0x3e, 0x83, 0xe3, 0x56, 0xbd,
  0x2a, 0xa1, 0x81, 0xbe, 0x87, 0x77, 0x62, 0x3e, 0xfa, 0xfa, 0x85, 0xbf,
  0xb1, 0x9c, 0x19, 0xbf, 0x06, 0x10, 0xfd, 0xbe, 0xa9, 0x8c, 0xef, 0xbb,
  0x84, 0x77, 0x88, 0xbe, 0x87, 0x4b, 0x1a, 0x3f, 0x30, 0xd4, 0x82, 0xbe,
  0x98, 0x74, 0xe6, 0x3d, 0x4e, 0xf7, 0xa1, 0x3f, 0xe0, 0x03, 0x1b, 0x3f,
  0x8c, 0x07, 0x1d, 0x3e, 0x59, 0xe2, 0xce, 0xbc, 0x00, 0x77, 0xab, 0x3f,
  0x74, 0x0c, 0x4c, 0x3f, 0xc2, 0xbd, 0xb7, 0x3e, 0x98, 0x22, 0xb9, 0x3b,
  0xd4, 0x54, 0x44, 0x3f, 0x85, 0x10, 0x87, 0xbf, 0x5e, 0xd9, 0x3f, 0xbe,
  0x3e, 0x4a, 0xea, 0x3e, 0xa8, 0x94, 0x80, 0xbf, 0xb9, 0x28, 0x50, 0xbf,
  0x7d, 0xb9, 0x3f, 0xbd, 0xab, 0x31, 0x1d, 0xbf, 0x52, 0xa0, 0xa3, 0x3c,
  0x0c, 0x7f, 0x99, 0x3e, 0x1f, 0xb9, 0x3b, 0x3f, 0xd4, 0x50, 0x5a, 0xbf,
  0x90, 0x19, 0xe1, 0xbf, 0x46, 0xfd, 0xff, 0xff, 0x04, 0x00, 0x00, 0x00,
  0xc0, 0x00, 0x00, 0x00, 0x95, 0xf3, 0xa3, 0xbe, 0xcd, 0xdb, 0xb8, 0x3e,
  0x38, 0xe3, 0x94, 0x3e, 0x4e, 0x17, 0xdd, 0xbe, 0x50, 0xac, 0xcf, 0x3e,
  0x7d, 0x4d, 0x8e, 0xbd, 0xfc, 0x96, 0xf6, 0x3e, 0xd4, 0xf1, 0xc5, 0xbe,
  0xfc, 0x02, 0x68, 0xbf, 0x72, 0x03, 0xad, 0x3e, 0xcd, 0x45, 0x36, 0x3f,
  0x78, 0x05, 0x1e, 0xbf, 0xf3, 0x00, 0xe3, 0x3e, 0x8e, 0x26, 0x7a, 0xbe,
  0xec, 0xbb, 0x23, 0x3f, 0x97, 0xe5, 0x4e, 0xbe, 0x26, 0xcc, 0x69, 0xbc,
  0x85, 0x9c, 0x16, 0xbf, 0xfa, 0x8c, 0x03, 0x3f, 0x03, 0x1f, 0x11, 0xbf,
  0x2b, 0x14, 0xaf, 0x3e, 0x4f, 0x12, 0x49, 0xbe, 0x85, 0x0b, 0x0a, 0x3f,
  0xf3, 0x80, 0x8d, 0xbe, 0x15, 0x57, 0x31, 0x3c, 0x71, 0x7b, 0xd7, 0x3e,
  0xfe, 0x00, 0x21, 0x3f, 0xd7, 0x3f, 0xa2, 0x3d, 0x45, 0xe8, 0x35, 0xbf,
  0xa1, 0x24, 0x9f, 0xbd, 0x11, 0x7e, 0x81, 0xbe, 0xc3, 0xe8, 0xa7, 0x3e,
  0x6c, 0xb4, 0xb2, 0xbe, 0x6e, 0xb9, 0x81, 0xbd, 0xb6, 0x0d, 0xa8, 0xbe,
  0x6e, 0x93, 0x03, 0x3f, 0x74, 0x9d, 0x27, 0xbe, 0xbd, 0x64, 0xa9, 0xbf,
  0x6e, 0x1a, 0x05, 0x3e, 0xab, 0x59, 0x9c, 0xbe, 0xca, 0xf7, 0x29, 0x3d,
  0xc0, 0x88, 0x45, 0xbf, 0x56, 0xb3, 0x07, 0xc0, 0x76, 0xf1, 0xcf, 0x3e,
  0x74, 0x6d, 0xaa, 0x3e, 0xca, 0xbe, 0x44, 0xbe, 0x17, 0x51, 0xf6, 0x3d,
  0x11, 0xe6, 0xcf, 0x3d, 0x12, 0xfe, 0xff, 0xff, 0x04, 0x00, 0x00, 0x00,
  0xf0, 0x00, 0x00, 0x00, 0xcd, 0x45, 0xe0, 0x3d, 0x09, 0xe7, 0xee, 0x3c,
  0x83, 0xd9, 0xc2, 0x3c, 0xd7, 0xce, 0x15, 0xbd, 0xeb, 0xb8, 0x20, 0xbf,
  0xd8, 0xe4, 0x0b, 0xbe, 0x4e, 0xdc, 0x17, 0xbe, 0x07, 0x4d, 0xc1, 0x3d,
  0x6b, 0x9b, 0x04, 0x3e, 0xf8, 0x53, 0x44, 0xbf, 0xbd, 0xb4, 0x14, 0x3e,
  0xfd, 0xf9, 0x52, 0x3c, 0x11, 0x4d, 0xf8, 0xbd, 0xf2, 0x0f, 0x9b, 0x3d,
  0xef, 0xbc, 0x2f, 0xbf, 0xb0, 0x9b, 0x4a, 0xbd, 0x5e, 0x22, 0xca, 0x3c,
  0x50, 0xd2, 0x5a, 0x3e, 0x44, 0x01, 0x61, 0x3e, 0x7d, 0x1c, 0x9b, 0xbd,
  0x99, 0xb3, 0x4f, 0x3d, 0xf1, 0x6e, 0x84, 0x3d, 0x2e, 0xf1, 0xa4, 0x3d,
  0x6f, 0xea, 0x05, 0x3f, 0x37, 0xf0, 0x5b, 0x3e, 0x5b, 0x40, 0xb1, 0xbb,
  0xdb, 0xd9, 0xef, 0xbc, 0x35, 0xc9, 0x32, 0xbe, 0x2a, 0x5a, 0xb0, 0xbc,
  0xe1, 0x8e, 0x0c, 0x3f, 0x30, 0x45, 0x14, 0x3d, 0x53, 0xf5, 0xb5, 0x3c,
  0xc2, 0x05, 0x8e, 0xbe, 0x8e, 0x7c, 0x93, 0x3e, 0xd3, 0x5c, 0xef, 0x3d,
  0x86, 0x30, 0x8e, 0xbd, 0xae, 0x4f, 0xc4, 0x3c, 0xaa, 0xff, 0x37, 0x3e,
  0x93, 0xfb, 0x14, 0x3f, 0x8a, 0x1d, 0x12, 0xbf, 0xc4, 0x01, 0x60, 0x3d,
  0xff, 0x8d, 0xa4, 0xbc, 0xb3, 0xbb, 0x95, 0x3e, 0xe7, 0x9c, 0x99, 0x3e,
  0x4a, 0x1b, 0x20, 0xbf, 0xb5, 0x78, 0xaf, 0x3c, 0xb3, 0x2b, 0x74, 0x3c,
  0x3d, 0x3f, 0x93, 0x3d, 0x8f, 0xe3, 0x4d, 0x3f, 0x94, 0xf0, 0x84, 0xbe,
  0x0c, 0xa7, 0xff, 0x3b, 0x58, 0x82, 0xae, 0x3c, 0x20, 0x79, 0x63, 0x3d,
  0xc8, 0x7d, 0x84, 0x3e, 0xc4, 0x0e, 0x32, 0xbf, 0xfc, 0x91, 0x36, 0xbc,
  0xb4, 0xed, 0x30, 0xbb, 0x29, 0xf7, 0x00, 0x3e, 0xea, 0x2f, 0x46, 0x3e,
  0x38, 0xda, 0x09, 0xbe, 0x0e, 0xff, 0xff, 0xff, 0x04, 0x00, 0x00, 0x00,
  0x10, 0x00, 0x00, 0x00, 0x2b, 0xf5, 0xed, 0x3e, 0x91, 0xe4, 0x56, 0x3f,
  0x38, 0x2f, 0x13, 0xbe, 0x29, 0x26, 0xbe, 0x3e, 0x2a, 0xff, 0xff, 0xff,
  0x04, 0x00, 0x00, 0x00, 0x10, 0x00, 0x00, 0x00, 0x04, 0xbc, 0xef, 0x3d,
  0x0b, 0xf0, 0xdc, 0x3d, 0xf1, 0x38, 0x72, 0x3d, 0xb1, 0xb3, 0x5a, 0x3e,
  0x46, 0xff, 0xff, 0xff, 0x04, 0x00, 0x00, 0x00, 0x10, 0x00, 0x00, 0x00,
  0xa6, 0x27, 0x19, 0xbe, 0xc8, 0x87, 0x8e, 0x3d, 0x58, 0x69, 0x51, 0x3e,
  0x52, 0xc8, 0xce, 0x3d, 0x60, 0xf2, 0xff, 0xff, 0x64, 0xf2, 0xff, 0xff,
  0x0f, 0x00, 0x00, 0x00, 0x4d, 0x4c, 0x49, 0x52, 0x20, 0x43, 0x6f, 0x6e,
  0x76, 0x65, 0x72, 0x74, 0x65, 0x64, 0x2e, 0x00, 0x01, 0x00, 0x00, 0x00,
  0x14, 0x00, 0x00, 0x00, 0x00, 0x00, 0x0e, 0x00, 0x18, 0x00, 0x14, 0x00,
  0x10, 0x00, 0x0c, 0x00, 0x08, 0x00, 0x04, 0x00, 0x0e, 0x00, 0x00, 0x00,
  0x14, 0x00, 0x00, 0x00, 0x1c, 0x00, 0x00, 0x00, 0xe8, 0x02, 0x00, 0x00,
  0xec, 0x02, 0x00, 0x00, 0xf0, 0x02, 0x00, 0x00, 0x04, 0x00, 0x00, 0x00,
  0x6d, 0x61, 0x69, 0x6e, 0x00, 0x00, 0x00, 0x00, 0x0a, 0x00, 0x00, 0x00,
  0x80, 0x02, 0x00, 0x00, 0x1c, 0x02, 0x00, 0x00, 0xc0, 0x01, 0x00, 0x00,
  0x70, 0x01, 0x00, 0x00, 0x30, 0x01, 0x00, 0x00, 0xf0, 0x00, 0x00, 0x00,
  0xc8, 0x00, 0x00, 0x00, 0x78, 0x00, 0x00, 0x00, 0x40, 0x00, 0x00, 0x00,
  0x04, 0x00, 0x00, 0x00, 0x16, 0xfe, 0xff, 0xff, 0x1c, 0x00, 0x00, 0x00,
  0x00, 0x00, 0x00, 0x09, 0x1c, 0x00, 0x00, 0x00, 0x20, 0x00, 0x00, 0x00,
  0x04, 0x00, 0x00, 0x00, 0x00, 0x00, 0x06, 0x00, 0x08, 0x00, 0x04, 0x00,
  0x06, 0x00, 0x00, 0x00, 0x00, 0x00, 0x80, 0x3f, 0x01, 0x00, 0x00, 0x00,
  0x15, 0x00, 0x00, 0x00, 0x01, 0x00, 0x00, 0x00, 0x14, 0x00, 0x00, 0x00,
  0x4e, 0xfe, 0xff, 0xff, 0x14, 0x00, 0x00, 0x00, 0x00, 0x00, 0x00, 0x08,
  0x10, 0x00, 0x00, 0x00, 0x14, 0x00, 0x00, 0x00, 0x03, 0x00, 0x00, 0x00,
  0x34, 0xf3, 0xff, 0xff, 0x01, 0x00, 0x00, 0x00, 0x14, 0x00, 0x00, 0x00,
  0x03, 0x00, 0x00, 0x00, 0x13, 0x00, 0x00, 0x00, 0x0b, 0x00, 0x00, 0x00,
  0x07, 0x00, 0x00, 0x00, 0x82, 0xfe, 0xff, 0xff, 0x1c, 0x00, 0x00, 0x00,
  0x00, 0x00, 0x00, 0x08, 0x1c, 0x00, 0x00, 0x00, 0x20, 0x00, 0x00, 0x00,
  0x03, 0x00, 0x00, 0x00, 0x00, 0x00, 0x06, 0x00, 0x08, 0x00, 0x07, 0x00,
  0x06, 0x00, 0x00, 0x00, 0x00, 0x00, 0x00, 0x01, 0x01, 0x00, 0x00, 0x00,
  0x13, 0x00, 0x00, 0x00, 0x03, 0x00, 0x00, 0x00, 0x12, 0x00, 0x00, 0x00,
  0x0a, 0x00, 0x00, 0x00, 0x08, 0x00, 0x00, 0x00, 0x00, 0x00, 0x0a, 0x00,
  0x10, 0x00, 0x0c, 0x00, 0x08, 0x00, 0x04, 0x00, 0x0a, 0x00, 0x00, 0x00,
  0x0c, 0x00, 0x00, 0x00, 0x10, 0x00, 0x00, 0x00, 0x02, 0x00, 0x00, 0x00,
  0x01, 0x00, 0x00, 0x00, 0x12, 0x00, 0x00, 0x00, 0x02, 0x00, 0x00, 0x00,
  0x11, 0x00, 0x00, 0x00, 0x09, 0x00, 0x00, 0x00, 0xf2, 0xfe, 0xff, 0xff,
  0x14, 0x00, 0x00, 0x00, 0x00, 0x00, 0x00, 0x05, 0x20, 0x00, 0x00, 0x00,
  0x24, 0x00, 0x00, 0x00, 0x01, 0x00, 0x00, 0x00, 0x86, 0xff, 0xff, 0xff,
  0x02, 0x00, 0x00, 0x00, 0x01, 0x00, 0x00, 0x00, 0x02, 0x00, 0x00, 0x00,
  0x01, 0x00, 0x00, 0x00, 0x01, 0x00, 0x00, 0x00, 0x11, 0x00, 0x00, 0x00,
  0x01, 0x00, 0x00, 0x00, 0x10, 0x00, 0x00, 0x00, 0xce, 0xfe, 0xff, 0xff,
  0x10, 0x00, 0x00, 0x00, 0x00, 0x00, 0x00, 0x01, 0x18, 0x00, 0x00, 0x00,
  0x1c, 0x00, 0x00, 0x00, 0x78, 0xff, 0xff, 0xff, 0x00, 0x00, 0x00, 0x01,
  0x01, 0x00, 0x00, 0x00, 0x01, 0x00, 0x00, 0x00, 0x01, 0x00, 0x00, 0x00,
  0x10, 0x00, 0x00, 0x00, 0x03, 0x00, 0x00, 0x00, 0x0f, 0x00, 0x00, 0x00,
  0x06, 0x00, 0x00, 0x00, 0x03, 0x00, 0x00, 0x00, 0x6a, 0xff, 0xff, 0xff,
  0x24, 0x00, 0x00, 0x00, 0x00, 0x00, 0x00, 0x05, 0x30, 0x00, 0x00, 0x00,
  0x34, 0x00, 0x00, 0x00, 0x01, 0x00, 0x00, 0x00, 0x00, 0x00, 0x0e, 0x00,
  0x14, 0x00, 0x00, 0x00, 0x10, 0x00, 0x0c, 0x00, 0x08, 0x00, 0x04, 0x00,
  0x0e, 0x00, 0x00, 0x00, 0x02, 0x00, 0x00, 0x00, 0x01, 0x00, 0x00, 0x00,
  0x02, 0x00, 0x00, 0x00, 0x01, 0x00, 0x00, 0x00, 0x01, 0x00, 0x00, 0x00,
  0x0f, 0x00, 0x00, 0x00, 0x01, 0x00, 0x00, 0x00, 0x0e, 0x00, 0x00, 0x00,
  0x56, 0xff, 0xff, 0xff, 0x1c, 0x00, 0x00, 0x00, 0x00, 0x00, 0x00, 0x01,
  0x24, 0x00, 0x00, 0x00, 0x28, 0x00, 0x00, 0x00, 0x0c, 0x00, 0x10, 0x00,
  0x00, 0x00, 0x0c, 0x00, 0x08, 0x00, 0x07, 0x00, 0x0c, 0x00, 0x00, 0x00,
  0x00, 0x00, 0x00, 0x01, 0x01, 0x00, 0x00, 0x00, 0x01, 0x00, 0x00, 0x00,
  0x01, 0x00, 0x00, 0x00, 0x0e, 0x00, 0x00, 0x00, 0x03, 0x00, 0x00, 0x00,
  0x0d, 0x00, 0x00, 0x00, 0x05, 0x00, 0x00, 0x00, 0x02, 0x00, 0x00, 0x00,
  0x00, 0x00, 0x0e, 0x00, 0x1a, 0x00, 0x14, 0x00, 0x10, 0x00, 0x0c, 0x00,
  0x0b, 0x00, 0x04, 0x00, 0x0e, 0x00, 0x00, 0x00, 0x24, 0x00, 0x00, 0x00,
  0x00, 0x00, 0x00, 0x05, 0x34, 0x00, 0x00, 0x00, 0x38, 0x00, 0x00, 0x00,
  0x01, 0x00, 0x00, 0x00, 0x00, 0x00, 0x0e, 0x00, 0x18, 0x00, 0x17, 0x00,
  0x10, 0x00, 0x0c, 0x00, 0x08, 0x00, 0x04, 0x00, 0x0e, 0x00, 0x00, 0x00,
  0x02, 0x00, 0x00, 0x00, 0x01, 0x00, 0x00, 0x00, 0x02, 0x00, 0x00, 0x00,
  0x01, 0x00, 0x00, 0x00, 0x00, 0x00, 0x00, 0x01, 0x01, 0x00, 0x00, 0x00,
  0x0d, 0x00, 0x00, 0x00, 0x01, 0x00, 0x00, 0x00, 0x0c, 0x00, 0x00, 0x00,
  0x00, 0x00, 0x0e, 0x00, 0x14, 0x00, 0x00, 0x00, 0x10, 0x00, 0x0c, 0x00,
  0x0b, 0x00, 0x04, 0x00, 0x0e, 0x00, 0x00, 0x00, 0x1c, 0x00, 0x00, 0x00,
  0x00, 0x00, 0x00, 0x01, 0x28, 0x00, 0x00, 0x00, 0x2c, 0x00, 0x00, 0x00,
  0x0c, 0x00, 0x14, 0x00, 0x13, 0x00, 0x0c, 0x00, 0x08, 0x00, 0x07, 0x00,
  0x0c, 0x00, 0x00, 0x00, 0x00, 0x00, 0x00, 0x01, 0x01, 0x00, 0x00, 0x00,
  0x01, 0x00, 0x00, 0x00, 0x00, 0x00, 0x00, 0x01, 0x01, 0x00, 0x00, 0x00,
  0x0c, 0x00, 0x00, 0x00, 0x03, 0x00, 0x00, 0x00, 0x00, 0x00, 0x00, 0x00,
  0x04, 0x00, 0x00, 0x00, 0x01, 0x00, 0x00, 0x00, 0x01, 0x00, 0x00, 0x00,
  0x15, 0x00, 0x00, 0x00, 0x01, 0x00, 0x00, 0x00, 0x00, 0x00, 0x00, 0x00,
  0x16, 0x00, 0x00, 0x00, 0x34, 0x0a, 0x00, 0x00, 0xc0, 0x09, 0x00, 0x00,
  0x4c, 0x09, 0x00, 0x00, 0xf0, 0x08, 0x00, 0x00, 0x98, 0x08, 0x00, 0x00,
  0x40, 0x08, 0x00, 0x00, 0xe8, 0x07, 0x00, 0x00, 0x8c, 0x07, 0x00, 0x00,
  0x30, 0x07, 0x00, 0x00, 0xe0, 0x06, 0x00, 0x00, 0x78, 0x06, 0x00, 0x00,
  0x28, 0x06, 0x00, 0x00, 0x28, 0x05, 0x00, 0x00, 0xb0, 0x04, 0x00, 0x00,
  0xb0, 0x03, 0x00, 0x00, 0x38, 0x03, 0x00, 0x00, 0x58, 0x02, 0x00, 0x00,
  0xe0, 0x01, 0x00, 0x00, 0x7c, 0x01, 0x00, 0x00, 0xe0, 0x00, 0x00, 0x00,
  0x60, 0x00, 0x00, 0x00, 0x04, 0x00, 0x00, 0x00, 0x3a, 0xf6, 0xff, 0xff,
  0x00, 0x00, 0x00, 0x01, 0x14, 0x00, 0x00, 0x00, 0x1c, 0x00, 0x00, 0x00,
  0x1c, 0x00, 0x00, 0x00, 0x16, 0x00, 0x00, 0x00, 0x34, 0x00, 0x00, 0x00,
  0x02, 0x00, 0x00, 0x00, 0xff, 0xff, 0xff, 0xff, 0x04, 0x00, 0x00, 0x00,
  0x1c, 0xf6, 0xff, 0xff, 0x19, 0x00, 0x00, 0x00, 0x53, 0x74, 0x61, 0x74,
  0x65, 0x66, 0x75, 0x6c, 0x50, 0x61, 0x72, 0x74, 0x69, 0x74, 0x69, 0x6f,
  0x6e, 0x65, 0x64, 0x43, 0x61, 0x6c, 0x6c, 0x3a, 0x30, 0x00, 0x00, 0x00,
  0x02, 0x00, 0x00, 0x00, 0x01, 0x00, 0x00, 0x00, 0x04, 0x00, 0x00, 0x00,
  0x92, 0xf6, 0xff, 0xff, 0x00, 0x00, 0x00, 0x01, 0x14, 0x00, 0x00, 0x00,
  0x1c, 0x00, 0x00, 0x00, 0x1c, 0x00, 0x00, 0x00, 0x15, 0x00, 0x00, 0x00,
  0x58, 0x00, 0x00, 0x00, 0x02, 0x00, 0x00, 0x00, 0xff, 0xff, 0xff, 0xff,
  0x04, 0x00, 0x00, 0x00, 0x74, 0xf6, 0xff, 0xff, 0x3c, 0x00, 0x00, 0x00,
  0x73, 0x65, 0x71, 0x75, 0x65, 0x6e, 0x74, 0x69, 0x61, 0x6c, 0x5f, 0x33,
  0x39, 0x2f, 0x64, 0x65, 0x6e, 0x73, 0x65, 0x5f, 0x38, 0x30, 0x2f, 0x4d,
  0x61, 0x74, 0x4d, 0x75, 0x6c, 0x3b, 0x73, 0x65, 0x71, 0x75, 0x65, 0x6e,
  0x74, 0x69, 0x61, 0x6c, 0x5f, 0x33, 0x39, 0x2f, 0x64, 0x65, 0x6e, 0x73,
  0x65, 0x5f, 0x38, 0x30, 0x2f, 0x42, 0x69, 0x61, 0x73, 0x41, 0x64, 0x64,
  0x00, 0x00, 0x00, 0x00, 0x02, 0x00, 0x00, 0x00, 0x01, 0x00, 0x00, 0x00,
  0x04, 0x00, 0x00, 0x00, 0x0e, 0xf7, 0xff, 0xff, 0x00, 0x00, 0x00, 0x01,
  0x14, 0x00, 0x00, 0x00, 0x1c, 0x00, 0x00, 0x00, 0x1c, 0x00, 0x00, 0x00,
  0x14, 0x00, 0x00, 0x00, 0x74, 0x00, 0x00, 0x00, 0x02, 0x00, 0x00, 0x00,
  0xff, 0xff, 0xff, 0xff, 0x08, 0x00, 0x00, 0x00, 0xf0, 0xf6, 0xff, 0xff,
  0x58, 0x00, 0x00, 0x00, 0x73, 0x65, 0x71, 0x75, 0x65, 0x6e, 0x74, 0x69,
  0x61, 0x6c, 0x5f, 0x33, 0x39, 0x2f, 0x64, 0x65, 0x6e, 0x73, 0x65, 0x5f,
  0x37, 0x39, 0x2f, 0x4d, 0x61, 0x74, 0x4d, 0x75, 0x6c, 0x3b, 0x73, 0x65,
  0x71, 0x75, 0x65, 0x6e, 0x74, 0x69, 0x61, 0x6c, 0x5f, 0x33, 0x39, 0x2f,
  0x64, 0x65, 0x6e, 0x73, 0x65, 0x5f, 0x37, 0x39, 0x2f, 0x52, 0x65, 0x6c,
  0x75, 0x3b, 0x73, 0x65, 0x71, 0x75, 0x65, 0x6e, 0x74, 0x69, 0x61, 0x6c,
  0x5f, 0x33, 0x39, 0x2f, 0x64, 0x65, 0x6e, 0x73, 0x65, 0x5f, 0x37, 0x39,
  0x2f, 0x42, 0x69, 0x61, 0x73, 0x41, 0x64, 0x64, 0x00, 0x00, 0x00, 0x00,
  0x02, 0x00, 0x00, 0x00, 0x01, 0x00, 0x00, 0x00, 0x08, 0x00, 0x00, 0x00,
  0xa6, 0xf7, 0xff, 0xff, 0x00, 0x00, 0x00, 0x01, 0x14, 0x00, 0x00, 0x00,
  0x1c, 0x00, 0x00, 0x00, 0x1c, 0x00, 0x00, 0x00, 0x13, 0x00, 0x00, 0x00,
  0x3c, 0x00, 0x00, 0x00, 0x02, 0x00, 0x00, 0x00, 0xff, 0xff, 0xff, 0xff,
  0x18, 0x00, 0x00, 0x00, 0x88, 0xf7, 0xff, 0xff, 0x20, 0x00, 0x00, 0x00,
  0x73, 0x65, 0x71, 0x75, 0x65, 0x6e, 0x74, 0x69, 0x61, 0x6c, 0x5f, 0x33,
  0x39, 0x2f, 0x66, 0x6c, 0x61, 0x74, 0x74, 0x65, 0x6e, 0x5f, 0x33, 0x39,
  0x2f, 0x52, 0x65, 0x73, 0x68, 0x61, 0x70, 0x65, 0x00, 0x00, 0x00, 0x00,
  0x02, 0x00, 0x00, 0x00, 0x01, 0x00, 0x00, 0x00, 0x18, 0x00, 0x00, 0x00,
  0x06, 0xf8, 0xff, 0xff, 0x00, 0x00, 0x00, 0x01, 0x14, 0x00, 0x00, 0x00,
  0x24, 0x00, 0x00, 0x00, 0x24, 0x00, 0x00, 0x00, 0x12, 0x00, 0x00, 0x00,
  0x48, 0x00, 0x00, 0x00, 0x04, 0x00, 0x00, 0x00, 0xff, 0xff, 0xff, 0xff,
  0x06, 0x00, 0x00, 0x00, 0x01, 0x00, 0x00, 0x00, 0x04, 0x00, 0x00, 0x00,
  0xf0, 0xf7, 0xff, 0xff, 0x27, 0x00, 0x00, 0x00, 0x73, 0x65, 0x71, 0x75,
  0x65, 0x6e, 0x74, 0x69, 0x61, 0x6c, 0x5f, 0x33, 0x39, 0x2f, 0x6d, 0x61,
  0x78, 0x5f, 0x70, 0x6f, 0x6f, 0x6c, 0x69, 0x6e, 0x67, 0x32, 0x64, 0x5f,
  0x31, 0x31, 0x32, 0x2f, 0x4d, 0x61, 0x78, 0x50, 0x6f, 0x6f, 0x6c, 0x00,
  0x04, 0x00, 0x00, 0x00, 0x01, 0x00, 0x00, 0x00, 0x06, 0x00, 0x00, 0x00,
  0x01, 0x00, 0x00, 0x00, 0x04, 0x00, 0x00, 0x00, 0x7a, 0xf8, 0xff, 0xff,
  0x00, 0x00, 0x00, 0x01, 0x14, 0x00, 0x00, 0x00, 0x24, 0x00, 0x00, 0x00,
  0x24, 0x00, 0x00, 0x00, 0x11, 0x00, 0x00, 0x00, 0xb0, 0x00, 0x00, 0x00,
  0x04, 0x00, 0x00, 0x00, 0xff, 0xff, 0xff, 0xff, 0x0c, 0x00, 0x00, 0x00,
  0x01, 0x00, 0x00, 0x00, 0x04, 0x00, 0x00, 0x00, 0x64, 0xf8, 0xff, 0xff,
  0x8e, 0x00, 0x00, 0x00, 0x73, 0x65, 0x71, 0x75, 0x65, 0x6e, 0x74, 0x69,
  0x61, 0x6c, 0x5f, 0x33, 0x39, 0x2f, 0x63, 0x6f, 0x6e, 0x76, 0x32, 0x64,
  0x5f, 0x31, 0x31, 0x32, 0x2f, 0x52, 0x65, 0x6c, 0x75, 0x3b, 0x73, 0x65,
  0x71, 0x75, 0x65, 0x6e, 0x74, 0x69, 0x61, 0x6c, 0x5f, 0x33, 0x39, 0x2f,
  0x63, 0x6f, 0x6e, 0x76, 0x32, 0x64, 0x5f, 0x31, 0x31, 0x32, 0x2f, 0x42,
  0x69, 0x61, 0x73, 0x41, 0x64, 0x64, 0x3b, 0x73, 0x65, 0x71, 0x75, 0x65,
  0x6e, 0x74, 0x69, 0x61, 0x6c, 0x5f, 0x33, 0x39, 0x2f, 0x63, 0x6f, 0x6e,
  0x76, 0x32, 0x64, 0x5f, 0x31, 0x31, 0x32, 0x2f, 0x43, 0x6f, 0x6e, 0x76,
  0x32, 0x44, 0x3b, 0x73, 0x65, 0x71, 0x75, 0x65, 0x6e, 0x74, 0x69, 0x61,
  0x6c, 0x5f, 0x33, 0x39, 0x2f, 0x63, 0x6f, 0x6e, 0x76, 0x32, 0x64, 0x5f,
  0x31, 0x31, 0x32, 0x2f, 0x42, 0x69, 0x61, 0x73, 0x41, 0x64, 0x64, 0x2f,
  0x52, 0x65, 0x61, 0x64, 0x56, 0x61, 0x72, 0x69, 0x61, 0x62, 0x6c, 0x65,
  0x4f, 0x70, 0x00, 0x00, 0x04, 0x00, 0x00, 0x00, 0x01, 0x00, 0x00, 0x00,
  0x0c, 0x00, 0x00, 0x00, 0x01, 0x00, 0x00, 0x00, 0x04, 0x00, 0x00, 0x00,
  0x56, 0xf9, 0xff, 0xff, 0x00, 0x00, 0x00, 0x01, 0x14, 0x00, 0x00, 0x00,
  0x24, 0x00, 0x00, 0x00, 0x24, 0x00, 0x00, 0x00, 0x10, 0x00, 0x00, 0x00,
  0x48, 0x00, 0x00, 0x00, 0x04, 0x00, 0x00, 0x00, 0xff, 0xff, 0xff, 0xff,
  0x0c, 0x00, 0x00, 0x00, 0x01, 0x00, 0x00, 0x00, 0x04, 0x00, 0x00, 0x00,
  0x40, 0xf9, 0xff, 0xff, 0x27, 0x00, 0x00, 0x00, 0x73, 0x65, 0x71, 0x75,
  0x65, 0x6e, 0x74, 0x69, 0x61, 0x6c, 0x5f, 0x33, 0x39, 0x2f, 0x6d, 0x61,
  0x78, 0x5f, 0x70, 0x6f, 0x6f, 0x6c, 0x69, 0x6e, 0x67, 0x32, 0x64, 0x5f,
  0x31, 0x31, 0x31, 0x2f, 0x4d, 0x61, 0x78, 0x50, 0x6f, 0x6f, 0x6c, 0x00,
  0x04, 0x00, 0x00, 0x00, 0x01, 0x00, 0x00, 0x00, 0x0c, 0x00, 0x00, 0x00,
  0x01, 0x00, 0x00, 0x00, 0x04, 0x00, 0x00, 0x00, 0xca, 0xf9, 0xff, 0xff,
  0x00, 0x00, 0x00, 0x01, 0x14, 0x00, 0x00, 0x00, 0x24, 0x00, 0x00, 0x00,
  0x24, 0x00, 0x00, 0x00, 0x0f, 0x00, 0x00, 0x00, 0xd0, 0x00, 0x00, 0x00,
  0x04, 0x00, 0x00, 0x00, 0xff, 0xff, 0xff, 0xff, 0x18, 0x00, 0x00, 0x00,
  0x01, 0x00, 0x00, 0x00, 0x04, 0x00, 0x00, 0x00, 0xb4, 0xf9, 0xff, 0xff,
  0xae, 0x00, 0x00, 0x00, 0x73, 0x65, 0x71, 0x75, 0x65, 0x6e, 0x74, 0x69,
  0x61, 0x6c, 0x5f, 0x33, 0x39, 0x2f, 0x63, 0x6f, 0x6e, 0x76, 0x32, 0x64,
  0x5f, 0x31, 0x31, 0x31, 0x2f, 0x52, 0x65, 0x6c, 0x75, 0x3b, 0x73, 0x65,
  0x71, 0x75, 0x65, 0x6e, 0x74, 0x69, 0x61, 0x6c, 0x5f, 0x33, 0x39, 0x2f,
  0x63, 0x6f, 0x6e, 0x76, 0x32, 0x64, 0x5f, 0x31, 0x31, 0x31, 0x2f, 0x42,
  0x69, 0x61, 0x73, 0x41, 0x64, 0x64, 0x3b, 0x73, 0x65, 0x71, 0x75, 0x65,
  0x6e, 0x74, 0x69, 0x61, 0x6c, 0x5f, 0x33, 0x39, 0x2f, 0x63, 0x6f, 0x6e,
  0x76, 0x32, 0x64, 0x5f, 0x31, 0x31, 0x32, 0x2f, 0x43, 0x6f, 0x6e, 0x76,
  0x32, 0x44, 0x3b, 0x73, 0x65, 0x71, 0x75, 0x65, 0x6e, 0x74, 0x69, 0x61,
  0x6c, 0x5f, 0x33, 0x39, 0x2f, 0x63, 0x6f, 0x6e, 0x76, 0x32, 0x64, 0x5f,
  0x31, 0x31, 0x31, 0x2f, 0x43, 0x6f, 0x6e, 0x76, 0x32, 0x44, 0x3b, 0x73,
  0x65, 0x71, 0x75, 0x65, 0x6e, 0x74, 0x69, 0x61, 0x6c, 0x5f, 0x33, 0x39,
  0x2f, 0x63, 0x6f, 0x6e, 0x76, 0x32, 0x64, 0x5f, 0x31, 0x31, 0x31, 0x2f,
  0x42, 0x69, 0x61, 0x73, 0x41, 0x64, 0x64, 0x2f, 0x52, 0x65, 0x61, 0x64,
  0x56, 0x61, 0x72, 0x69, 0x61, 0x62, 0x6c, 0x65, 0x4f, 0x70, 0x00, 0x00,
  0x04, 0x00, 0x00, 0x00, 0x01, 0x00, 0x00, 0x00, 0x18, 0x00, 0x00, 0x00,
  0x01, 0x00, 0x00, 0x00, 0x04, 0x00, 0x00, 0x00, 0xc6, 0xfa, 0xff, 0xff,
  0x00, 0x00, 0x00, 0x01, 0x14, 0x00, 0x00, 0x00, 0x24, 0x00, 0x00, 0x00,
  0x24, 0x00, 0x00, 0x00, 0x0e, 0x00, 0x00, 0x00, 0x48, 0x00, 0x00, 0x00,
  0x04, 0x00, 0x00, 0x00, 0xff, 0xff, 0xff, 0xff, 0x18, 0x00, 0x00, 0x00,
  0x01, 0x00, 0x00, 0x00, 0x04, 0x00, 0x00, 0x00, 0xb0, 0xfa, 0xff, 0xff,
  0x27, 0x00, 0x00, 0x00, 0x73, 0x65, 0x71, 0x75, 0x65, 0x6e, 0x74, 0x69,
  0x61, 0x6c, 0x5f, 0x33, 0x39, 0x2f, 0x6d, 0x61, 0x78, 0x5f, 0x70, 0x6f,
  0x6f, 0x6c, 0x69, 0x6e, 0x67, 0x32, 0x64, 0x5f, 0x31, 0x31, 0x30, 0x2f,
  0x4d, 0x61, 0x78, 0x50, 0x6f, 0x6f, 0x6c, 0x00, 0x04, 0x00, 0x00, 0x00,
  0x01, 0x00, 0x00, 0x00, 0x18, 0x00, 0x00, 0x00, 0x01, 0x00, 0x00, 0x00,
  0x04, 0x00, 0x00, 0x00, 0x3a, 0xfb, 0xff, 0xff, 0x00, 0x00, 0x00, 0x01,
  0x14, 0x00, 0x00, 0x00, 0x24, 0x00, 0x00, 0x00, 0x24, 0x00, 0x00, 0x00,
  0x0d, 0x00, 0x00, 0x00, 0xd0, 0x00, 0x00, 0x00, 0x04, 0x00, 0x00, 0x00,
  0xff, 0xff, 0xff, 0xff, 0x30, 0x00, 0x00, 0x00, 0x01, 0x00, 0x00, 0x00,
  0x04, 0x00, 0x00, 0x00, 0x24, 0xfb, 0xff, 0xff, 0xae, 0x00, 0x00, 0x00,
  0x73, 0x65, 0x71, 0x75, 0x65, 0x6e, 0x74, 0x69, 0x61, 0x6c, 0x5f, 0x33,
  0x39, 0x2f, 0x63, 0x6f, 0x6e, 0x76, 0x32, 0x64, 0x5f, 0x31, 0x31, 0x30,
  0x2f, 0x52, 0x65, 0x6c, 0x75, 0x3b, 0x73, 0x65, 0x71, 0x75, 0x65, 0x6e,
  0x74, 0x69, 0x61, 0x6c, 0x5f, 0x33, 0x39, 0x2f, 0x63, 0x6f, 0x6e, 0x76,
  0x32, 0x64, 0x5f, 0x31, 0x31, 0x30, 0x2f, 0x42, 0x69, 0x61, 0x73, 0x41,
  0x64, 0x64, 0x3b, 0x73, 0x65, 0x71, 0x75, 0x65, 0x6e, 0x74, 0x69, 0x61,
  0x6c, 0x5f, 0x33, 0x39, 0x2f, 0x63, 0x6f, 0x6e, 0x76, 0x32, 0x64, 0x5f,
  0x31, 0x31, 0x32, 0x2f, 0x43, 0x6f, 0x6e, 0x76, 0x32, 0x44, 0x3b, 0x73,
  0x65, 0x71, 0x75, 0x65, 0x6e, 0x74, 0x69, 0x61, 0x6c, 0x5f, 0x33, 0x39,
  0x2f, 0x63, 0x6f, 0x6e, 0x76, 0x32, 0x64, 0x5f, 0x31, 0x31, 0x30, 0x2f,
  0x43, 0x6f, 0x6e, 0x76, 0x32, 0x44, 0x3b, 0x73, 0x65, 0x71, 0x75, 0x65,
  0x6e, 0x74, 0x69, 0x61, 0x6c, 0x5f, 0x33, 0x39, 0x2f, 0x63, 0x6f, 0x6e,
  0x76, 0x32, 0x64, 0x5f, 0x31, 0x31, 0x30, 0x2f, 0x42, 0x69, 0x61, 0x73,
  0x41, 0x64, 0x64, 0x2f, 0x52, 0x65, 0x61, 0x64, 0x56, 0x61, 0x72, 0x69,
  0x61, 0x62, 0x6c, 0x65, 0x4f, 0x70, 0x00, 0x00, 0x04, 0x00, 0x00, 0x00,
  0x01, 0x00, 0x00, 0x00, 0x30, 0x00, 0x00, 0x00, 0x01, 0x00, 0x00, 0x00,
  0x04, 0x00, 0x00, 0x00, 0xa6, 0xfc, 0xff, 0xff, 0x00, 0x00, 0x00, 0x01,
  0x10, 0x00, 0x00, 0x00, 0x10, 0x00, 0x00, 0x00, 0x0c, 0x00, 0x00, 0x00,
  0x2c, 0x00, 0x00, 0x00, 0x08, 0xfc, 0xff, 0xff, 0x1d, 0x00, 0x00, 0x00,
  0x73, 0x65, 0x71, 0x75, 0x65, 0x6e, 0x74, 0x69, 0x61, 0x6c, 0x5f, 0x33,
  0x39, 0x2f, 0x64, 0x65, 0x6e, 0x73, 0x65, 0x5f, 0x38, 0x30, 0x2f, 0x4d,
  0x61, 0x74, 0x4d, 0x75, 0x6c, 0x00, 0x00, 0x00, 0x02, 0x00, 0x00, 0x00,
  0x04, 0x00, 0x00, 0x00, 0x08, 0x00, 0x00, 0x00, 0xf2, 0xfc, 0xff, 0xff,
  0x00, 0x00, 0x00, 0x01, 0x10, 0x00, 0x00, 0x00, 0x10, 0x00, 0x00, 0x00,
  0x0b, 0x00, 0x00, 0x00, 0x2c, 0x00, 0x00, 0x00, 0x54, 0xfc, 0xff, 0xff,
  0x1d, 0x00, 0x00, 0x00, 0x73, 0x65, 0x71, 0x75, 0x65, 0x6e, 0x74, 0x69,
  0x61, 0x6c, 0x5f, 0x33, 0x39, 0x2f, 0x64, 0x65, 0x6e, 0x73, 0x65, 0x5f,
  0x37, 0x39, 0x2f, 0x4d, 0x61, 0x74, 0x4d, 0x75, 0x6c, 0x00, 0x00, 0x00,
  0x02, 0x00, 0x00, 0x00, 0x08, 0x00, 0x00, 0x00, 0x18, 0x00, 0x00, 0x00,
  0x00, 0x00, 0x16, 0x00, 0x1c, 0x00, 0x18, 0x00, 0x17, 0x00, 0x10, 0x00,
  0x0c, 0x00, 0x08, 0x00, 0x00, 0x00, 0x00, 0x00, 0x00, 0x00, 0x07, 0x00,
  0x16, 0x00, 0x00, 0x00, 0x00, 0x00, 0x00, 0x01, 0x14, 0x00, 0x00, 0x00,
  0x14, 0x00, 0x00, 0x00, 0x0a, 0x00, 0x00, 0x00, 0x00, 0x00, 0x00, 0x02,
  0x2c, 0x00, 0x00, 0x00, 0xbc, 0xfc, 0xff, 0xff, 0x1e, 0x00, 0x00, 0x00,
  0x73, 0x65, 0x71, 0x75, 0x65, 0x6e, 0x74, 0x69, 0x61, 0x6c, 0x5f, 0x33,
  0x39, 0x2f, 0x66, 0x6c, 0x61, 0x74, 0x74, 0x65, 0x6e, 0x5f, 0x33, 0x39,
  0x2f, 0x43, 0x6f, 0x6e, 0x73, 0x74, 0x00, 0x00, 0x01, 0x00, 0x00, 0x00,
  0x02, 0x00, 0x00, 0x00, 0xa2, 0xfd, 0xff, 0xff, 0x00, 0x00, 0x00, 0x01,
  0x10, 0x00, 0x00, 0x00, 0x10, 0x00, 0x00, 0x00, 0x09, 0x00, 0x00, 0x00,
  0x3c, 0x00, 0x00, 0x00, 0x04, 0xfd, 0xff, 0xff, 0x2d, 0x00, 0x00, 0x00,
  0x73, 0x65, 0x71, 0x75, 0x65, 0x6e, 0x74, 0x69, 0x61, 0x6c, 0x5f, 0x33,
  0x39, 0x2f, 0x64, 0x65, 0x6e, 0x73, 0x65, 0x5f, 0x37, 0x39, 0x2f, 0x42,
  0x69, 0x61, 0x73, 0x41, 0x64, 0x64, 0x2f, 0x52, 0x65, 0x61, 0x64, 0x56,
  0x61, 0x72, 0x69, 0x61, 0x62, 0x6c, 0x65, 0x4f, 0x70, 0x00, 0x00, 0x00,
  0x01, 0x00, 0x00, 0x00, 0x08, 0x00, 0x00, 0x00, 0xfa, 0xfd, 0xff, 0xff,
  0x00, 0x00, 0x00, 0x01, 0x10, 0x00, 0x00, 0x00, 0x10, 0x00, 0x00, 0x00,
  0x08, 0x00, 0x00, 0x00, 0x3c, 0x00, 0x00, 0x00, 0x5c, 0xfd, 0xff, 0xff,
  0x2d, 0x00, 0x00, 0x00, 0x73, 0x65, 0x71, 0x75, 0x65, 0x6e, 0x74, 0x69,
  0x61, 0x6c, 0x5f, 0x33, 0x39, 0x2f, 0x64, 0x65, 0x6e, 0x73, 0x65, 0x5f,
  0x38, 0x30, 0x2f, 0x42, 0x69, 0x61, 0x73, 0x41, 0x64, 0x64, 0x2f, 0x52,
  0x65, 0x61, 0x64, 0x56, 0x61, 0x72, 0x69, 0x61, 0x62, 0x6c, 0x65, 0x4f,
  0x70, 0x00, 0x00, 0x00, 0x01, 0x00, 0x00, 0x00, 0x04, 0x00, 0x00, 0x00,
  0x52, 0xfe, 0xff, 0xff, 0x00, 0x00, 0x00, 0x01, 0x10, 0x00, 0x00, 0x00,
  0x10, 0x00, 0x00, 0x00, 0x07, 0x00, 0x00, 0x00, 0x2c, 0x00, 0x00, 0x00,
  0xb4, 0xfd, 0xff, 0xff, 0x1f, 0x00, 0x00, 0x00, 0x73, 0x65, 0x71, 0x75,
  0x65, 0x6e, 0x74, 0x69, 0x61, 0x6c, 0x5f, 0x33, 0x39, 0x2f, 0x63, 0x6f,
  0x6e, 0x76, 0x32, 0x64, 0x5f, 0x31, 0x31, 0x32, 0x2f, 0x43, 0x6f, 0x6e,
  0x76, 0x32, 0x44, 0x00, 0x04, 0x00, 0x00, 0x00, 0x04, 0x00, 0x00, 0x00,
  0x03, 0x00, 0x00, 0x00, 0x01, 0x00, 0x00, 0x00, 0x04, 0x00, 0x00, 0x00,
  0xa6, 0xfe, 0xff, 0xff, 0x00, 0x00, 0x00, 0x01, 0x10, 0x00, 0x00, 0x00,
  0x10, 0x00, 0x00, 0x00, 0x06, 0x00, 0x00, 0x00, 0x2c, 0x00, 0x00, 0x00,
  0x08, 0xfe, 0xff, 0xff, 0x1f, 0x00, 0x00, 0x00, 0x73, 0x65, 0x71, 0x75,
  0x65, 0x6e, 0x74, 0x69, 0x61, 0x6c, 0x5f, 0x33, 0x39, 0x2f, 0x63, 0x6f,
  0x6e, 0x76, 0x32, 0x64, 0x5f, 0x31, 0x31, 0x31, 0x2f, 0x43, 0x6f, 0x6e,
  0x76, 0x32, 0x44, 0x00, 0x04, 0x00, 0x00, 0x00, 0x04, 0x00, 0x00, 0x00,
  0x03, 0x00, 0x00, 0x00, 0x01, 0x00, 0x00, 0x00, 0x04, 0x00, 0x00, 0x00,
  0xfa, 0xfe, 0xff, 0xff, 0x00, 0x00, 0x00, 0x01, 0x10, 0x00, 0x00, 0x00,
  0x10, 0x00, 0x00, 0x00, 0x05, 0x00, 0x00, 0x00, 0x2c, 0x00, 0x00, 0x00,
  0x5c, 0xfe, 0xff, 0xff, 0x1f, 0x00, 0x00, 0x00, 0x73, 0x65, 0x71, 0x75,
  0x65, 0x6e, 0x74, 0x69, 0x61, 0x6c, 0x5f, 0x33, 0x39, 0x2f, 0x63, 0x6f,
  0x6e, 0x76, 0x32, 0x64, 0x5f, 0x31, 0x31, 0x30, 0x2f, 0x43, 0x6f, 0x6e,
  0x76, 0x32, 0x44, 0x00, 0x04, 0x00, 0x00, 0x00, 0x04, 0x00, 0x00, 0x00,
  0x03, 0x00, 0x00, 0x00, 0x05, 0x00, 0x00, 0x00, 0x01, 0x00, 0x00, 0x00,
  0x4e, 0xff, 0xff, 0xff, 0x00, 0x00, 0x00, 0x01, 0x10, 0x00, 0x00, 0x00,
  0x10, 0x00, 0x00, 0x00, 0x04, 0x00, 0x00, 0x00, 0x3c, 0x00, 0x00, 0x00,
  0xb0, 0xfe, 0xff, 0xff, 0x2f, 0x00, 0x00, 0x00, 0x73, 0x65, 0x71, 0x75,
  0x65, 0x6e, 0x74, 0x69, 0x61, 0x6c, 0x5f, 0x33, 0x39, 0x2f, 0x63, 0x6f,
  0x6e, 0x76, 0x32, 0x64, 0x5f, 0x31, 0x31, 0x32, 0x2f, 0x42, 0x69, 0x61,
  0x73, 0x41, 0x64, 0x64, 0x2f, 0x52, 0x65, 0x61, 0x64, 0x56, 0x61, 0x72,
  0x69, 0x61, 0x62, 0x6c, 0x65, 0x4f, 0x70, 0x00, 0x01, 0x00, 0x00, 0x00,
  0x04, 0x00, 0x00, 0x00, 0xa6, 0xff, 0xff, 0xff, 0x00, 0x00, 0x00, 0x01,
  0x10, 0x00, 0x00, 0x00, 0x10, 0x00, 0x00, 0x00, 0x03, 0x00, 0x00, 0x00,
  0x3c, 0x00, 0x00, 0x00, 0x08, 0xff, 0xff, 0xff, 0x2f, 0x00, 0x00, 0x00,
  0x73, 0x65, 0x71, 0x75, 0x65, 0x6e, 0x74, 0x69, 0x61, 0x6c, 0x5f, 0x33,
  0x39, 0x2f, 0x63, 0x6f, 0x6e, 0x76, 0x32, 0x64, 0x5f, 0x31, 0x31, 0x31,
  0x2f, 0x42, 0x69, 0x61, 0x73, 0x41, 0x64, 0x64, 0x2f, 0x52, 0x65, 0x61,
  0x64, 0x56, 0x61, 0x72, 0x69, 0x61, 0x62, 0x6c, 0x65, 0x4f, 0x70, 0x00,
  0x01, 0x00, 0x00, 0x00, 0x04, 0x00, 0x00, 0x00, 0x00, 0x00, 0x16, 0x00,
  0x18, 0x00, 0x14, 0x00, 0x00, 0x00, 0x10, 0x00, 0x0c, 0x00, 0x08, 0x00,
  0x00, 0x00, 0x00, 0x00, 0x00, 0x00, 0x07, 0x00, 0x16, 0x00, 0x00, 0x00,
  0x00, 0x00, 0x00, 0x01, 0x10, 0x00, 0x00, 0x00, 0x10, 0x00, 0x00, 0x00,
  0x02, 0x00, 0x00, 0x00, 0x3c, 0x00, 0x00, 0x00, 0x78, 0xff, 0xff, 0xff,
  0x2f, 0x00, 0x00, 0x00, 0x73, 0x65, 0x71, 0x75, 0x65, 0x6e, 0x74, 0x69,
  0x61, 0x6c, 0x5f, 0x33, 0x39, 0x2f, 0x63, 0x6f, 0x6e, 0x76, 0x32, 0x64,
  0x5f, 0x31, 0x31, 0x30, 0x2f, 0x42, 0x69, 0x61, 0x73, 0x41, 0x64, 0x64,
  0x2f, 0x52, 0x65, 0x61, 0x64, 0x56, 0x61, 0x72, 0x69, 0x61, 0x62, 0x6c,
  0x65, 0x4f, 0x70, 0x00, 0x01, 0x00, 0x00, 0x00, 0x04, 0x00, 0x00, 0x00,
  0x00, 0x00, 0x16, 0x00, 0x1c, 0x00, 0x18, 0x00, 0x00, 0x00, 0x14, 0x00,
  0x10, 0x00, 0x0c, 0x00, 0x00, 0x00, 0x00, 0x00, 0x08, 0x00, 0x07, 0x00,
  0x16, 0x00, 0x00, 0x00, 0x00, 0x00, 0x00, 0x01, 0x14, 0x00, 0x00, 0x00,
  0x28, 0x00, 0x00, 0x00, 0x28, 0x00, 0x00, 0x00, 0x01, 0x00, 0x00, 0x00,
  0x48, 0x00, 0x00, 0x00, 0x04, 0x00, 0x00, 0x00, 0xff, 0xff, 0xff, 0xff,
  0x32, 0x00, 0x00, 0x00, 0x05, 0x00, 0x00, 0x00, 0x01, 0x00, 0x00, 0x00,
  0x04, 0x00, 0x04, 0x00, 0x04, 0x00, 0x00, 0x00, 0x22, 0x00, 0x00, 0x00,
  0x73, 0x65, 0x72, 0x76, 0x69, 0x6e, 0x67, 0x5f, 0x64, 0x65, 0x66, 0x61,
  0x75, 0x6c, 0x74, 0x5f, 0x63, 0x6f, 0x6e, 0x76, 0x32, 0x64, 0x5f, 0x31,
  0x31, 0x30, 0x5f, 0x69, 0x6e, 0x70, 0x75, 0x74, 0x3a, 0x30, 0x00, 0x00,
  0x04, 0x00, 0x00, 0x00, 0x01, 0x00, 0x00, 0x00, 0x32, 0x00, 0x00, 0x00,
  0x05, 0x00, 0x00, 0x00, 0x01, 0x00, 0x00, 0x00, 0x05, 0x00, 0x00, 0x00,
  0x50, 0x00, 0x00, 0x00, 0x34, 0x00, 0x00, 0x00, 0x24, 0x00, 0x00, 0x00,
  0x14, 0x00, 0x00, 0x00, 0x04, 0x00, 0x00, 0x00, 0xd0, 0xff, 0xff, 0xff,
  0x19, 0x00, 0x00, 0x00, 0x00, 0x00, 0x00, 0x19, 0xdc, 0xff, 0xff, 0xff,
  0x09, 0x00, 0x00, 0x00, 0x00, 0x00, 0x00, 0x09, 0xe8, 0xff, 0xff, 0xff,
  0x16, 0x00, 0x00, 0x00, 0x00, 0x00, 0x00, 0x16, 0xf4, 0xff, 0xff, 0xff,
  0x11, 0x00, 0x00, 0x00, 0x00, 0x00, 0x00, 0x11, 0x0c, 0x00, 0x0c, 0x00,
  0x0b, 0x00, 0x00, 0x00, 0x00, 0x00, 0x04, 0x00, 0x0c, 0x00, 0x00, 0x00,
  0x03, 0x00, 0x00, 0x00, 0x00, 0x00, 0x00, 0x03
};
unsigned int model_tflite_len = 5948;
